{
  "version": "1.0",
  "truncation": null,
  "padding": null,
  "added_tokens": [
    {
      "id": 0,
      "content": "<pad>",
      "single_word": false,
      "lstrip": false,
      "rstrip": false,
      "normalized": false,
      "special": true
    },
    {
      "id": 1,
      "content": "<unk>",
      "single_word": false,
      "lstrip": false,
      "rstrip": false,
      "normalized": false,
      "special": true
    },
    {
      "id": 2,
      "content": "<sos>",
      "single_word": false,
      "lstrip": false,
      "rstrip": false,
      "normalized": false,
      "special": true
    },
    {
      "id": 3,
      "content": "<eos>",
      "single_word": false,
      "lstrip": false,
      "rstrip": false,
      "normalized": false,
      "special": true
    },
    {
      "id": 4,
      "content": "<s>",
      "single_word": false,
      "lstrip": false,
      "rstrip": false,
      "normalized": false,
      "special": true
    },
    {
      "id": 5,
      "content": "</s>",
      "single_word": false,
      "lstrip": false,
      "rstrip": false,
      "normalized": false,
      "special": true
    }
  ],
  "normalizer": null,
  "pre_tokenizer": {
    "type": "Whitespace"
  },
  "post_processor": {
    "type": "BertProcessing",
    "sep": [
      "</s>",
      2
    ],
    "cls": [
      "<s>",
      1
    ]
  },
  "decoder": null,
  "model": {
    "type": "BPE",
    "dropout": null,
    "unk_token": "<unk>",
    "continuing_subword_prefix": null,
    "end_of_word_suffix": null,
    "fuse_unk": false,
    "byte_fallback": false,
    "ignore_merges": false,
    "vocab": {
      "<pad>": 0,
      "<unk>": 1,
      "<sos>": 2,
      "<eos>": 3,
      "<s>": 4,
      "</s>": 5,
      "!": 6,
      "\"": 7,
      "'": 8,
      ",": 9,
      "-": 10,
      ".": 11,
      "0": 12,
      "1": 13,
      "2": 14,
      "3": 15,
      "4": 16,
      "5": 17,
      "6": 18,
      "7": 19,
      "8": 20,
      "9": 21,
      ":": 22,
      ";": 23,
      "?": 24,
      "a": 25,
      "b": 26,
      "c": 27,
      "d": 28,
      "e": 29,
      "f": 30,
      "g": 31,
      "h": 32,
      "i": 33,
      "j": 34,
      "k": 35,
      "l": 36,
      "m": 37,
      "n": 38,
      "o": 39,
      "p": 40,
      "q": 41,
      "r": 42,
      "s": 43,
      "t": 44,
      "u": 45,
      "v": 46,
      "w": 47,
      "x": 48,
      "y": 49,
      "z": 50,
      "º": 51,
      "à": 52,
      "á": 53,
      "ã": 54,
      "ç": 55,
      "è": 56,
      "é": 57,
      "ê": 58,
      "ï": 59,
      "ó": 60,
      "ô": 61,
      "ö": 62,
      "ü": 63,
      "ă": 64,
      "ć": 65,
      "š": 66,
      "ș": 67,
      "ε": 68,
      "th": 69,
      "in": 70,
      "an": 71,
      "re": 72,
      "the": 73,
      "on": 74,
      "er": 75,
      "at": 76,
      "en": 77,
      "al": 78,
      "es": 79,
      "or": 80,
      "is": 81,
      "it": 82,
      "to": 83,
      "ic": 84,
      "ed": 85,
      "and": 86,
      "ar": 87,
      "ing": 88,
      "as": 89,
      "of": 90,
      "ou": 91,
      "ion": 92,
      "st": 93,
      "ro": 94,
      "ent": 95,
      "le": 96,
      "om": 97,
      "de": 98,
      "il": 99,
      "se": 100,
      "ve": 101,
      "ac": 102,
      "ly": 103,
      "be": 104,
      "for": 105,
      "ch": 106,
      "con": 107,
      "tr": 108,
      "ol": 109,
      "ation": 110,
      "un": 111,
      "that": 112,
      "su": 113,
      "im": 114,
      "lo": 115,
      "wh": 116,
      "ad": 117,
      "ver": 118,
      "ut": 119,
      "no": 120,
      "mo": 121,
      "ment": 122,
      "pro": 123,
      "am": 124,
      "ct": 125,
      "ies": 126,
      "ld": 127,
      "ce": 128,
      "ig": 129,
      "ab": 130,
      "us": 131,
      "are": 132,
      "ter": 133,
      "pe": 134,
      "ill": 135,
      "oun": 136,
      "com": 137,
      "ir": 138,
      "ne": 139,
      "ag": 140,
      "ur": 141,
      "res": 142,
      "id": 143,
      "ate": 144,
      "po": 145,
      "we": 146,
      "wi": 147,
      "ity": 148,
      "ts": 149,
      "ul": 150,
      "with": 151,
      "ap": 152,
      "af": 153,
      "ers": 154,
      "ke": 155,
      "ma": 156,
      "ex": 157,
      "ess": 158,
      "est": 159,
      "em": 160,
      "li": 161,
      "wor": 162,
      "he": 163,
      "ric": 164,
      "by": 165,
      "ould": 166,
      "so": 167,
      "not": 168,
      "coun": 169,
      "but": 170,
      "ge": 171,
      "op": 172,
      "over": 173,
      "ial": 174,
      "ha": 175,
      "ive": 176,
      "if": 177,
      "ther": 178,
      "ain": 179,
      "all": 180,
      "iv": 181,
      "sh": 182,
      "ay": 183,
      "will": 184,
      "pol": 185,
      "has": 186,
      "por": 187,
      "have": 188,
      "one": 189,
      "igh": 190,
      "countr": 191,
      "te": 192,
      "more": 193,
      "econ": 194,
      "man": 195,
      "ust": 196,
      "econom": 197,
      "qu": 198,
      "fe": 199,
      "its": 200,
      "out": 201,
      "iz": 202,
      "fro": 203,
      "ans": 204,
      "from": 205,
      "pl": 206,
      "act": 207,
      "eu": 208,
      "afric": 209,
      "red": 210,
      "ist": 211,
      "ical": 212,
      "end": 213,
      "this": 214,
      "ions": 215,
      "cr": 216,
      "their": 217,
      "per": 218,
      "ye": 219,
      "pr": 220,
      "ren": 221,
      "ind": 222,
      "par": 223,
      "cl": 224,
      "our": 225,
      "port": 226,
      "gh": 227,
      "ant": 228,
      "20": 229,
      "co": 230,
      "countries": 231,
      "der": 232,
      "me": 233,
      "can": 234,
      "euro": 235,
      "ow": 236,
      "was": 237,
      "world": 238,
      "row": 239,
      "able": 240,
      "str": 241,
      "ong": 242,
      "ast": 243,
      "cre": 244,
      "ia": 245,
      "ev": 246,
      "fo": 247,
      "nation": 248,
      "bal": 249,
      "they": 250,
      "ure": 251,
      "ef": 252,
      "new": 253,
      "od": 254,
      "year": 255,
      "cial": 256,
      "cent": 257,
      "than": 258,
      "pres": 259,
      "ich": 260,
      "dis": 261,
      "gr": 262,
      "overn": 263,
      "would": 264,
      "au": 265,
      "govern": 266,
      "grow": 267,
      "uct": 268,
      "which": 269,
      "um": 270,
      "ance": 271,
      "other": 272,
      "ated": 273,
      "fin": 274,
      "ous": 275,
      "part": 276,
      "ary": 277,
      "comm": 278,
      "do": 279,
      "ough": 280,
      "economic": 281,
      "age": 282,
      "ie": 283,
      "now": 284,
      "ip": 285,
      "mar": 286,
      "national": 287,
      "go": 288,
      "low": 289,
      "ates": 290,
      "cess": 291,
      "bl": 292,
      "inter": 293,
      "glo": 294,
      "ack": 295,
      "ign": 296,
      "ard": 297,
      "ome": 298,
      "velo": 299,
      "pre": 300,
      "cur": 301,
      "global": 302,
      "develo": 303,
      "develop": 304,
      "ments": 305,
      "inv": 306,
      "ach": 307,
      "ban": 308,
      "europe": 309,
      "form": 310,
      "cont": 311,
      "ight": 312,
      "amer": 313,
      "king": 314,
      "ble": 315,
      "up": 316,
      "polit": 317,
      "ta": 318,
      "americ": 319,
      "uc": 320,
      "bo": 321,
      "most": 322,
      "fr": 323,
      "reat": 324,
      "chin": 325,
      "reg": 326,
      "polic": 327,
      "fic": 328,
      "lead": 329,
      "ud": 330,
      "ence": 331,
      "like": 332,
      "br": 333,
      "ations": 334,
      "peop": 335,
      "who": 336,
      "pos": 337,
      "ber": 338,
      "need": 339,
      "av": 340,
      "el": 341,
      "come": 342,
      "many": 343,
      "ree": 344,
      "ine": 345,
      "ult": 346,
      "ll": 347,
      "ob": 348,
      "ors": 349,
      "some": 350,
      "ire": 351,
      "ade": 352,
      "ple": 353,
      "there": 354,
      "been": 355,
      "growth": 356,
      "ks": 357,
      "chan": 358,
      "ide": 359,
      "ser": 360,
      "people": 361,
      "ting": 362,
      "ces": 363,
      "these": 364,
      "ener": 365,
      "invest": 366,
      "ition": 367,
      "alth": 368,
      "sp": 369,
      "ound": 370,
      "ime": 371,
      "unit": 372,
      "ile": 373,
      "ility": 374,
      "africa": 375,
      "years": 376,
      "sup": 377,
      "even": 378,
      "whe": 379,
      "ty": 380,
      "ens": 381,
      "illion": 382,
      "fore": 383,
      "ra": 384,
      "sy": 385,
      "only": 386,
      "ally": 387,
      "int": 388,
      "such": 389,
      "also": 390,
      "under": 391,
      "ue": 392,
      "finan": 393,
      "ger": 394,
      "should": 395,
      "political": 396,
      "ace": 397,
      "less": 398,
      "ian": 399,
      "pu": 400,
      "own": 401,
      "wer": 402,
      "min": 403,
      "must": 404,
      "ish": 405,
      "publ": 406,
      "gy": 407,
      "way": 408,
      "ism": 409,
      "ress": 410,
      "could": 411,
      "work": 412,
      "creas": 413,
      "policy": 414,
      "lar": 415,
      "high": 416,
      "war": 417,
      "bet": 418,
      "lect": 419,
      "prov": 420,
      "about": 421,
      "und": 422,
      "ident": 423,
      "old": 424,
      "pt": 425,
      "tw": 426,
      "cap": 427,
      "increas": 428,
      "rest": 429,
      "ative": 430,
      "his": 431,
      "inte": 432,
      "prod": 433,
      "ris": 434,
      "international": 435,
      "when": 436,
      "public": 437,
      "long": 438,
      "ital": 439,
      "what": 440,
      "marke": 441,
      "ame": 442,
      "19": 443,
      "cor": 444,
      "government": 445,
      "ted": 446,
      "dr": 447,
      "ms": 448,
      "ass": 449,
      "ious": 450,
      "power": 451,
      "may": 452,
      "china": 453,
      "lear": 454,
      "ful": 455,
      "any": 456,
      "were": 457,
      "fl": 458,
      "201": 459,
      "cau": 460,
      "far": 461,
      "contin": 462,
      "fir": 463,
      "put": 464,
      "development": 465,
      "just": 466,
      "cal": 467,
      "rent": 468,
      "200": 469,
      "tur": 470,
      "while": 471,
      "dec": 472,
      "ho": 473,
      "ating": 474,
      "day": 475,
      "stem": 476,
      "cause": 477,
      "country": 478,
      "mu": 479,
      "them": 480,
      "ak": 481,
      "cer": 482,
      "where": 483,
      "cris": 484,
      "financial": 485,
      "ild": 486,
      "very": 487,
      "comp": 488,
      "main": 489,
      "si": 490,
      "ater": 491,
      "ents": 492,
      "fa": 493,
      "sur": 494,
      "health": 495,
      "leaders": 496,
      "african": 497,
      "rel": 498,
      "ced": 499,
      "ose": 500,
      "fect": 501,
      "cy": 502,
      "trans": 503,
      "ci": 504,
      "into": 505,
      "ities": 506,
      "states": 507,
      "president": 508,
      "system": 509,
      "ep": 510,
      "fact": 511,
      "time": 512,
      "change": 513,
      "des": 514,
      "sum": 515,
      "ific": 516,
      "olo": 517,
      "deb": 518,
      "vers": 519,
      "aid": 520,
      "hel": 521,
      "vic": 522,
      "united": 523,
      "ory": 524,
      "sol": 525,
      "much": 526,
      "fund": 527,
      "eng": 528,
      "trade": 529,
      "economy": 530,
      "recent": 531,
      "two": 532,
      "emp": 533,
      "bas": 534,
      "mis": 535,
      "gener": 536,
      "led": 537,
      "great": 538,
      "had": 539,
      "those": 540,
      "inst": 541,
      "because": 542,
      "imate": 543,
      "je": 544,
      "proble": 545,
      "crisis": 546,
      "ization": 547,
      "ics": 548,
      "stand": 549,
      "pect": 550,
      "ten": 551,
      "gu": 552,
      "help": 553,
      "med": 554,
      "cond": 555,
      "after": 556,
      "ustr": 557,
      "support": 558,
      "add": 559,
      "ort": 560,
      "arly": 561,
      "product": 562,
      "att": 563,
      "00": 564,
      "dif": 565,
      "fer": 566,
      "well": 567,
      "jap": 568,
      "rough": 569,
      "als": 570,
      "ution": 571,
      "exam": 572,
      "ize": 573,
      "european": 574,
      "hu": 575,
      "sub": 576,
      "import": 577,
      "land": 578,
      "ability": 579,
      "tech": 580,
      "incl": 581,
      "sim": 582,
      "dem": 583,
      "di": 584,
      "ists": 585,
      "ural": 586,
      "requ": 587,
      "cour": 588,
      "remain": 589,
      "real": 590,
      "sel": 591,
      "ite": 592,
      "techn": 593,
      "ween": 594,
      "pon": 595,
      "tal": 596,
      "vo": 597,
      "set": 598,
      "first": 599,
      "bus": 600,
      "la": 601,
      "tern": 602,
      "again": 603,
      "good": 604,
      "between": 605,
      "ning": 606,
      "pul": 607,
      "sure": 608,
      "col": 609,
      "wom": 610,
      "youn": 611,
      "inde": 612,
      "today": 613,
      "billion": 614,
      "governments": 615,
      "gress": 616,
      "cons": 617,
      "ject": 618,
      "investment": 619,
      "cus": 620,
      "how": 621,
      "last": 622,
      "vel": 623,
      "ters": 624,
      "cas": 625,
      "read": 626,
      "demo": 627,
      "make": 628,
      "example": 629,
      "cost": 630,
      "bank": 631,
      "ves": 632,
      "get": 633,
      "arch": 634,
      "become": 635,
      "current": 636,
      "val": 637,
      "chall": 638,
      "american": 639,
      "bu": 640,
      "through": 641,
      "ise": 642,
      "too": 643,
      "state": 644,
      "popul": 645,
      "her": 646,
      "back": 647,
      "sul": 648,
      "africas": 649,
      "ump": 650,
      "mone": 651,
      "iven": 652,
      "stain": 653,
      "effect": 654,
      "large": 655,
      "young": 656,
      "don": 657,
      "ss": 658,
      "both": 659,
      "interest": 660,
      "sustain": 661,
      "loy": 662,
      "industr": 663,
      "iness": 664,
      "educ": 665,
      "ual": 666,
      "ict": 667,
      "sect": 668,
      "respon": 669,
      "use": 670,
      "thing": 671,
      "social": 672,
      "minis": 673,
      "important": 674,
      "technolo": 675,
      "unity": 676,
      "rus": 677,
      "tain": 678,
      "turn": 679,
      "order": 680,
      "outh": 681,
      "ized": 682,
      "car": 683,
      "spe": 684,
      "capital": 685,
      "japan": 686,
      "dom": 687,
      "know": 688,
      "ential": 689,
      "ving": 690,
      "qual": 691,
      "partic": 692,
      "ward": 693,
      "ese": 694,
      "climate": 695,
      "effor": 696,
      "then": 697,
      "tri": 698,
      "suc": 699,
      "key": 700,
      "ready": 701,
      "resul": 702,
      "debt": 703,
      "ben": 704,
      "jor": 705,
      "nor": 706,
      "sign": 707,
      "term": 708,
      "democr": 709,
      "gan": 710,
      "vis": 711,
      "uring": 712,
      "business": 713,
      "ince": 714,
      "exp": 715,
      "market": 716,
      "eas": 717,
      "hold": 718,
      "vie": 719,
      "acy": 720,
      "call": 721,
      "har": 722,
      "my": 723,
      "against": 724,
      "fut": 725,
      "pric": 726,
      "ons": 727,
      "ily": 728,
      "appro": 729,
      "made": 730,
      "ives": 731,
      "likely": 732,
      "ging": 733,
      "job": 734,
      "utions": 735,
      "ext": 736,
      "leg": 737,
      "seem": 738,
      "major": 739,
      "elect": 740,
      "ional": 741,
      "every": 742,
      "already": 743,
      "being": 744,
      "app": 745,
      "strate": 746,
      "future": 747,
      "pa": 748,
      "cho": 749,
      "economies": 750,
      "care": 751,
      "ko": 752,
      "foreign": 753,
      "child": 754,
      "ically": 755,
      "strong": 756,
      "hip": 757,
      "reform": 758,
      "ilit": 759,
      "ures": 760,
      "secur": 761,
      "ug": 762,
      "yet": 763,
      "tax": 764,
      "still": 765,
      "level": 766,
      "cred": 767,
      "vi": 768,
      "ann": 769,
      "search": 770,
      "ghan": 771,
      "worlds": 772,
      "employ": 773,
      "education": 774,
      "lab": 775,
      "servic": 776,
      "energy": 777,
      "indeed": 778,
      "benef": 779,
      "terr": 780,
      "oper": 781,
      "jo": 782,
      "sion": 783,
      "markets": 784,
      "women": 785,
      "vir": 786,
      "art": 787,
      "off": 788,
      "see": 789,
      "includ": 790,
      "trump": 791,
      "struct": 792,
      "lin": 793,
      "issu": 794,
      "peri": 795,
      "priv": 796,
      "instit": 797,
      "down": 798,
      "del": 799,
      "gest": 800,
      "mem": 801,
      "vent": 802,
      "accoun": 803,
      "uni": 804,
      "emer": 805,
      "opport": 806,
      "short": 807,
      "fail": 808,
      "pay": 809,
      "mak": 810,
      "cord": 811,
      "demand": 812,
      "ib": 813,
      "take": 814,
      "security": 815,
      "atic": 816,
      "ared": 817,
      "ending": 818,
      "does": 819,
      "les": 820,
      "mon": 821,
      "reas": 822,
      "resour": 823,
      "without": 824,
      "soc": 825,
      "action": 826,
      "commit": 827,
      "human": 828,
      "dp": 829,
      "gram": 830,
      "bor": 831,
      "hist": 832,
      "ness": 833,
      "research": 834,
      "food": 835,
      "million": 836,
      "ran": 837,
      "since": 838,
      "top": 839,
      "rev": 840,
      "often": 841,
      "adv": 842,
      "program": 843,
      "nex": 844,
      "irect": 845,
      "increasing": 846,
      "self": 847,
      "labor": 848,
      "cing": 849,
      "ient": 850,
      "sci": 851,
      "force": 852,
      "clear": 853,
      "lim": 854,
      "oc": 855,
      "ri": 856,
      "tim": 857,
      "ys": 858,
      "plan": 859,
      "centr": 860,
      "certain": 861,
      "russ": 862,
      "fam": 863,
      "agree": 864,
      "ights": 865,
      "cannot": 866,
      "ues": 867,
      "offic": 868,
      "ouse": 869,
      "stud": 870,
      "mental": 871,
      "pot": 872,
      "milit": 873,
      "ians": 874,
      "mid": 875,
      "ply": 876,
      "uce": 877,
      "ice": 878,
      "liber": 879,
      "ivity": 880,
      "problem": 881,
      "tribut": 882,
      "might": 883,
      "rate": 884,
      "tar": 885,
      "inno": 886,
      "consum": 887,
      "truct": 888,
      "ades": 889,
      "unities": 890,
      "success": 891,
      "approach": 892,
      "next": 893,
      "same": 894,
      "socie": 895,
      "ca": 896,
      "ken": 897,
      "pend": 898,
      "road": 899,
      "access": 900,
      "afghan": 901,
      "sector": 902,
      "direct": 903,
      "house": 904,
      "threat": 905,
      "americas": 906,
      "ways": 907,
      "better": 908,
      "though": 909,
      "ref": 910,
      "defic": 911,
      "america": 912,
      "clo": 913,
      "another": 914,
      "used": 915,
      "net": 916,
      "particul": 917,
      "mit": 918,
      "envir": 919,
      "prove": 920,
      "ately": 921,
      "environ": 922,
      "bi": 923,
      "ds": 924,
      "gre": 925,
      "mat": 926,
      "sen": 927,
      "ably": 928,
      "fac": 929,
      "gdp": 930,
      "past": 931,
      "tary": 932,
      "organ": 933,
      "union": 934,
      "move": 935,
      "compe": 936,
      "diffe": 937,
      "including": 938,
      "progress": 939,
      "agric": 940,
      "quest": 941,
      "contro": 942,
      "challeng": 943,
      "efforts": 944,
      "agricult": 945,
      "ail": 946,
      "right": 947,
      "needed": 948,
      "employment": 949,
      "innov": 950,
      "ck": 951,
      "decl": 952,
      "trad": 953,
      "suf": 954,
      "compan": 955,
      "view": 956,
      "credit": 957,
      "military": 958,
      "et": 959,
      "hal": 960,
      "ok": 961,
      "three": 962,
      "ins": 963,
      "infl": 964,
      "ings": 965,
      "farm": 966,
      "aim": 967,
      "bre": 968,
      "gn": 969,
      "ports": 970,
      "play": 971,
      "prof": 972,
      "sible": 973,
      "children": 974,
      "bon": 975,
      "around": 976,
      "cept": 977,
      "abl": 978,
      "growing": 979,
      "services": 980,
      "private": 981,
      "fol": 982,
      "lit": 983,
      "treat": 984,
      "partn": 985,
      "banks": 986,
      "regul": 987,
      "needs": 988,
      "quality": 989,
      "central": 990,
      "bar": 991,
      "cut": 992,
      "sing": 993,
      "isra": 994,
      "accord": 995,
      "comes": 996,
      "0s": 997,
      "did": 998,
      "fed": 999,
      "ges": 1000,
      "second": 1001,
      "promis": 1002,
      "point": 1003,
      "few": 1004,
      "got": 1005,
      "problems": 1006,
      "address": 1007,
      "fis": 1008,
      "pur": 1009,
      "rates": 1010,
      "south": 1011,
      "ved": 1012,
      "income": 1013,
      "ency": 1014,
      "ivid": 1015,
      "decades": 1016,
      "pers": 1017,
      "rights": 1018,
      "tle": 1019,
      "ually": 1020,
      "reach": 1021,
      "ross": 1022,
      "beli": 1023,
      "process": 1024,
      "based": 1025,
      "ied": 1026,
      "ph": 1027,
      "among": 1028,
      "mean": 1029,
      "free": 1030,
      "mal": 1031,
      "before": 1032,
      "ages": 1033,
      "focus": 1034,
      "money": 1035,
      "result": 1036,
      "companies": 1037,
      "fiscal": 1038,
      "fall": 1039,
      "ged": 1040,
      "given": 1041,
      "nuc": 1042,
      "sa": 1043,
      "thor": 1044,
      "ilater": 1045,
      "poor": 1046,
      "appe": 1047,
      "course": 1048,
      "build": 1049,
      "sustainable": 1050,
      "terror": 1051,
      "follow": 1052,
      "big": 1053,
      "izing": 1054,
      "istan": 1055,
      "cially": 1056,
      "case": 1057,
      "challenges": 1058,
      "tion": 1059,
      "init": 1060,
      "ury": 1061,
      "cogn": 1062,
      "resources": 1063,
      "potential": 1064,
      "nuclear": 1065,
      "50": 1066,
      "cam": 1067,
      "improve": 1068,
      "project": 1069,
      "ago": 1070,
      "moreover": 1071,
      "rather": 1072,
      "risk": 1073,
      "jobs": 1074,
      "account": 1075,
      "ilateral": 1076,
      "equ": 1077,
      "concer": 1078,
      "crit": 1079,
      "itional": 1080,
      "signific": 1081,
      "univers": 1082,
      "ias": 1083,
      "kill": 1084,
      "wes": 1085,
      "thin": 1086,
      "espe": 1087,
      "chinese": 1088,
      "law": 1089,
      "gies": 1090,
      "num": 1091,
      "expect": 1092,
      "tect": 1093,
      "author": 1094,
      "industrial": 1095,
      "especially": 1096,
      "air": 1097,
      "dle": 1098,
      "pat": 1099,
      "she": 1100,
      "coming": 1101,
      "ider": 1102,
      "199": 1103,
      "simil": 1104,
      "mig": 1105,
      "sm": 1106,
      "tra": 1107,
      "ides": 1108,
      "establ": 1109,
      "ship": 1110,
      "policies": 1111,
      "significant": 1112,
      "establish": 1113,
      "den": 1114,
      "during": 1115,
      "nat": 1116,
      "infr": 1117,
      "astruct": 1118,
      "wide": 1119,
      "india": 1120,
      "higher": 1121,
      "increase": 1122,
      "half": 1123,
      "infrastruct": 1124,
      "cover": 1125,
      "found": 1126,
      "run": 1127,
      "wr": 1128,
      "ances": 1129,
      "meas": 1130,
      "costs": 1131,
      "middle": 1132,
      "sions": 1133,
      "sav": 1134,
      "ying": 1135,
      "never": 1136,
      "share": 1137,
      "russia": 1138,
      "infrastructure": 1139,
      "best": 1140,
      "fur": 1141,
      "hard": 1142,
      "recogn": 1143,
      "ata": 1144,
      "model": 1145,
      "protect": 1146,
      "wever": 1147,
      "others": 1148,
      "ficult": 1149,
      "however": 1150,
      "difficult": 1151,
      "remains": 1152,
      "institutions": 1153,
      "green": 1154,
      "partners": 1155,
      "western": 1156,
      "find": 1157,
      "lack": 1158,
      "non": 1159,
      "repres": 1160,
      "itive": 1161,
      "oup": 1162,
      "role": 1163,
      "why": 1164,
      "negot": 1165,
      "weak": 1166,
      "making": 1167,
      "posed": 1168,
      "decis": 1169,
      "effective": 1170,
      "according": 1171,
      "negoti": 1172,
      "sed": 1173,
      "water": 1174,
      "thir": 1175,
      "vere": 1176,
      "char": 1177,
      "confl": 1178,
      "pros": 1179,
      "life": 1180,
      "head": 1181,
      "ains": 1182,
      "show": 1183,
      "place": 1184,
      "whether": 1185,
      "integr": 1186,
      "called": 1187,
      "makers": 1188,
      "israel": 1189,
      "data": 1190,
      "eth": 1191,
      "home": 1192,
      "happ": 1193,
      "mult": 1194,
      "rup": 1195,
      "vious": 1196,
      "argu": 1197,
      "moder": 1198,
      "create": 1199,
      "nations": 1200,
      "continue": 1201,
      "systems": 1202,
      "compet": 1203,
      "cit": 1204,
      "east": 1205,
      "ama": 1206,
      "population": 1207,
      "official": 1208,
      "control": 1209,
      "bers": 1210,
      "ible": 1211,
      "reed": 1212,
      "ened": 1213,
      "imp": 1214,
      "peace": 1215,
      "comple": 1216,
      "means": 1217,
      "group": 1218,
      "viol": 1219,
      "face": 1220,
      "ner": 1221,
      "within": 1222,
      "pite": 1223,
      "ars": 1224,
      "rich": 1225,
      "ained": 1226,
      "cooper": 1227,
      "developing": 1228,
      "countrys": 1229,
      "prices": 1230,
      "society": 1231,
      "bur": 1232,
      "ium": 1233,
      "mor": 1234,
      "say": 1235,
      "tun": 1236,
      "ties": 1237,
      "thus": 1238,
      "ensure": 1239,
      "almost": 1240,
      "pover": 1241,
      "pri": 1242,
      "party": 1243,
      "community": 1244,
      "despite": 1245,
      "greater": 1246,
      "require": 1247,
      "benefits": 1248,
      "small": 1249,
      "ele": 1250,
      "gin": 1251,
      "gical": 1252,
      "scho": 1253,
      "least": 1254,
      "depend": 1255,
      "across": 1256,
      "iran": 1257,
      "estic": 1258,
      "position": 1259,
      "possible": 1260,
      "aids": 1261,
      "productivity": 1262,
      "school": 1263,
      "dan": 1264,
      "enge": 1265,
      "isl": 1266,
      "itions": 1267,
      "toward": 1268,
      "experi": 1269,
      "uced": 1270,
      "rise": 1271,
      "requi": 1272,
      "consider": 1273,
      "initi": 1274,
      "ec": 1275,
      "fu": 1276,
      "zone": 1277,
      "anced": 1278,
      "aps": 1279,
      "century": 1280,
      "ficient": 1281,
      "question": 1282,
      "ever": 1283,
      "pes": 1284,
      "eral": 1285,
      "aged": 1286,
      "commun": 1287,
      "continent": 1288,
      "generation": 1289,
      "seems": 1290,
      "further": 1291,
      "30": 1292,
      "cle": 1293,
      "hand": 1294,
      "ton": 1295,
      "you": 1296,
      "step": 1297,
      "necess": 1298,
      "pris": 1299,
      "technology": 1300,
      "ling": 1301,
      "inform": 1302,
      "ators": 1303,
      "local": 1304,
      "increasingly": 1305,
      "slow": 1306,
      "enough": 1307,
      "ited": 1308,
      "toge": 1309,
      "contr": 1310,
      "imin": 1311,
      "aren": 1312,
      "rence": 1313,
      "germany": 1314,
      "minister": 1315,
      "different": 1316,
      "together": 1317,
      "ned": 1318,
      "arab": 1319,
      "stren": 1320,
      "aging": 1321,
      "idence": 1322,
      "politics": 1323,
      "workers": 1324,
      "policymakers": 1325,
      "provide": 1326,
      "ministr": 1327,
      "emerging": 1328,
      "third": 1329,
      "ft": 1330,
      "ked": 1331,
      "ming": 1332,
      "ord": 1333,
      "contribut": 1334,
      "areas": 1335,
      "regional": 1336,
      "sib": 1337,
      "leadership": 1338,
      "standard": 1339,
      "election": 1340,
      "times": 1341,
      "streng": 1342,
      "aw": 1343,
      "ler": 1344,
      "ths": 1345,
      "ont": 1346,
      "allow": 1347,
      "deal": 1348,
      "open": 1349,
      "balance": 1350,
      "ought": 1351,
      "ield": 1352,
      "value": 1353,
      "domestic": 1354,
      "civ": 1355,
      "ear": 1356,
      "hing": 1357,
      "line": 1358,
      "report": 1359,
      "ond": 1360,
      "rop": 1361,
      "improv": 1362,
      "prime": 1363,
      "agement": 1364,
      "boo": 1365,
      "brit": 1366,
      "understand": 1367,
      "liberal": 1368,
      "poverty": 1369,
      "az": 1370,
      "aver": 1371,
      "mind": 1372,
      "til": 1373,
      "ick": 1374,
      "sug": 1375,
      "finance": 1376,
      "bring": 1377,
      "spending": 1378,
      "histor": 1379,
      "ai": 1380,
      "four": 1381,
      "mer": 1382,
      "mill": 1383,
      "rap": 1384,
      "tru": 1385,
      "working": 1386,
      "manu": 1387,
      "serious": 1388,
      "ption": 1389,
      "increased": 1390,
      "rising": 1391,
      "longer": 1392,
      "000": 1393,
      "todays": 1394,
      "challenge": 1395,
      "reflect": 1396,
      "particularly": 1397,
      "little": 1398,
      "citiz": 1399,
      "fuel": 1400,
      "civil": 1401,
      "ot": 1402,
      "issions": 1403,
      "star": 1404,
      "look": 1405,
      "ceed": 1406,
      "comb": 1407,
      "pose": 1408,
      "europes": 1409,
      "ieve": 1410,
      "plement": 1411,
      "opportunity": 1412,
      "modern": 1413,
      "mass": 1414,
      "pal": 1415,
      "pred": 1416,
      "ration": 1417,
      "ven": 1418,
      "atives": 1419,
      "bey": 1420,
      "wealth": 1421,
      "achieve": 1422,
      "largest": 1423,
      "extre": 1424,
      "issues": 1425,
      "opportunities": 1426,
      "reason": 1427,
      "ave": 1428,
      "broad": 1429,
      "him": 1430,
      "men": 1431,
      "oil": 1432,
      "ude": 1433,
      "agend": 1434,
      "maint": 1435,
      "plic": 1436,
      "reduce": 1437,
      "eurozone": 1438,
      "common": 1439,
      "former": 1440,
      "ensive": 1441,
      "provid": 1442,
      "recently": 1443,
      "levels": 1444,
      "afghanistan": 1445,
      "rapid": 1446,
      "manufact": 1447,
      "flow": 1448,
      "ants": 1449,
      "ening": 1450,
      "ention": 1451,
      "sequ": 1452,
      "developed": 1453,
      "region": 1454,
      "beyond": 1455,
      "haps": 1456,
      "tom": 1457,
      "stit": 1458,
      "start": 1459,
      "administr": 1460,
      "perhaps": 1461,
      "hope": 1462,
      "fair": 1463,
      "attack": 1464,
      "monetary": 1465,
      "price": 1466,
      "scient": 1467,
      "agreement": 1468,
      "environmental": 1469,
      "each": 1470,
      "gic": 1471,
      "ier": 1472,
      "ls": 1473,
      "light": 1474,
      "rul": 1475,
      "west": 1476,
      "youth": 1477,
      "ines": 1478,
      "republic": 1479,
      "itself": 1480,
      "stat": 1481,
      "olution": 1482,
      "mob": 1483,
      "iving": 1484,
      "governance": 1485,
      "selves": 1486,
      "deficit": 1487,
      "number": 1488,
      "ordin": 1489,
      "bud": 1490,
      "cult": 1491,
      "five": 1492,
      "saf": 1493,
      "return": 1494,
      "ently": 1495,
      "left": 1496,
      "fortun": 1497,
      "che": 1498,
      "super": 1499,
      "implement": 1500,
      "mod": 1501,
      "iger": 1502,
      "lives": 1503,
      "individ": 1504,
      "chinas": 1505,
      "investments": 1506,
      "simply": 1507,
      "spec": 1508,
      "programs": 1509,
      "concern": 1510,
      "citizens": 1511,
      "early": 1512,
      "gree": 1513,
      "ither": 1514,
      "mic": 1515,
      "niger": 1516,
      "ang": 1517,
      "total": 1518,
      "secre": 1519,
      "tract": 1520,
      "unemployment": 1521,
      "ended": 1522,
      "coal": 1523,
      "2008": 1524,
      "technologies": 1525,
      "reforms": 1526,
      "skill": 1527,
      "uk": 1528,
      "ences": 1529,
      "aster": 1530,
      "sus": 1531,
      "terms": 1532,
      "ends": 1533,
      "regard": 1534,
      "paign": 1535,
      "campaign": 1536,
      "similar": 1537,
      "cooperation": 1538,
      "aq": 1539,
      "fight": 1540,
      "uation": 1541,
      "ined": 1542,
      "ones": 1543,
      "ats": 1544,
      "alone": 1545,
      "anda": 1546,
      "asia": 1547,
      "def": 1548,
      "ched": 1549,
      "willing": 1550,
      "prevent": 1551,
      "person": 1552,
      "agenda": 1553,
      "ctr": 1554,
      "eve": 1555,
      "hol": 1556,
      "sour": 1557,
      "africans": 1558,
      "pract": 1559,
      "curren": 1560,
      "regions": 1561,
      "capac": 1562,
      "corpor": 1563,
      "japanese": 1564,
      "democratic": 1565,
      "strategy": 1566,
      "innovation": 1567,
      "conflict": 1568,
      "ix": 1569,
      "nam": 1570,
      "tem": 1571,
      "ash": 1572,
      "entire": 1573,
      "deter": 1574,
      "deli": 1575,
      "sever": 1576,
      "aining": 1577,
      "plac": 1578,
      "class": 1579,
      "americans": 1580,
      "france": 1581,
      "leading": 1582,
      "investors": 1583,
      "fully": 1584,
      "members": 1585,
      "science": 1586,
      "agriculture": 1587,
      "saving": 1588,
      "prior": 1589,
      "dou": 1590,
      "ead": 1591,
      "freed": 1592,
      "os": 1593,
      "pus": 1594,
      "ry": 1595,
      "inc": 1596,
      "ices": 1597,
      "deep": 1598,
      "forces": 1599,
      "iraq": 1600,
      "post": 1601,
      "claim": 1602,
      "diseas": 1603,
      "obama": 1604,
      "turkey": 1605,
      "funda": 1606,
      "funds": 1607,
      "history": 1608,
      "represent": 1609,
      "safe": 1610,
      "fortunately": 1611,
      "10": 1612,
      "lat": 1613,
      "ru": 1614,
      "encour": 1615,
      "ilities": 1616,
      "ute": 1617,
      "using": 1618,
      "exper": 1619,
      "living": 1620,
      "shif": 1621,
      "transform": 1622,
      "ledge": 1623,
      "expand": 1624,
      "issue": 1625,
      "advanced": 1626,
      "farmers": 1627,
      "expected": 1628,
      "scal": 1629,
      "tes": 1630,
      "promo": 1631,
      "ively": 1632,
      "prim": 1633,
      "created": 1634,
      "communities": 1635,
      "raw": 1636,
      "financing": 1637,
      "general": 1638,
      "production": 1639,
      "goods": 1640,
      "effects": 1641,
      "family": 1642,
      "break": 1643,
      "federal": 1644,
      "believe": 1645,
      "impact": 1646,
      "violence": 1647,
      "electr": 1648,
      "freedom": 1649,
      "dist": 1650,
      "paren": 1651,
      "test": 1652,
      "want": 1653,
      "rece": 1654,
      "once": 1655,
      "acc": 1656,
      "begin": 1657,
      "constit": 1658,
      "keep": 1659,
      "anti": 1660,
      "lower": 1661,
      "front": 1662,
      "full": 1663,
      "solutions": 1664,
      "period": 1665,
      "consumption": 1666,
      "agricultural": 1667,
      "inflation": 1668,
      "islam": 1669,
      "capacity": 1670,
      "several": 1671,
      "60": 1672,
      "sit": 1673,
      "sch": 1674,
      "ense": 1675,
      "iting": 1676,
      "adop": 1677,
      "goals": 1678,
      "invol": 1679,
      "ucing": 1680,
      "fri": 1681,
      "although": 1682,
      "198": 1683,
      "themselves": 1684,
      "vision": 1685,
      "annual": 1686,
      "measures": 1687,
      "average": 1688,
      "gue": 1689,
      "ham": 1690,
      "incent": 1691,
      "accept": 1692,
      "congress": 1693,
      "consequ": 1694,
      "true": 1695,
      "reser": 1696,
      "estim": 1697,
      "taking": 1698,
      "whose": 1699,
      "decade": 1700,
      "relative": 1701,
      "response": 1702,
      "carbon": 1703,
      "effort": 1704,
      "strategic": 1705,
      "household": 1706,
      "partnership": 1707,
      "prosper": 1708,
      "requires": 1709,
      "manufacturing": 1710,
      "came": 1711,
      "dam": 1712,
      "fav": 1713,
      "iev": 1714,
      "icians": 1715,
      "aring": 1716,
      "enter": 1717,
      "until": 1718,
      "agno": 1719,
      "ground": 1720,
      "corrup": 1721,
      "values": 1722,
      "domin": 1723,
      "democracy": 1724,
      "danger": 1725,
      "necessary": 1726,
      "boost": 1727,
      "dig": 1728,
      "hun": 1729,
      "mom": 1730,
      "mus": 1731,
      "ox": 1732,
      "sc": 1733,
      "stop": 1734,
      "ask": 1735,
      "ford": 1736,
      "conf": 1737,
      "construct": 1738,
      "uncertain": 1739,
      "emissions": 1740,
      "ival": 1741,
      "izations": 1742,
      "banking": 1743,
      "else": 1744,
      "changes": 1745,
      "medi": 1746,
      "attention": 1747,
      "subs": 1748,
      "diagno": 1749,
      "interests": 1750,
      "knowledge": 1751,
      "kore": 1752,
      "environment": 1753,
      "projects": 1754,
      "think": 1755,
      "sibility": 1756,
      "budget": 1757,
      "hind": 1758,
      "iop": 1759,
      "kes": 1760,
      "vul": 1761,
      "atory": 1762,
      "always": 1763,
      "uses": 1764,
      "affect": 1765,
      "crimin": 1766,
      "evidence": 1767,
      "ished": 1768,
      "continents": 1769,
      "firms": 1770,
      "cipl": 1771,
      "collect": 1772,
      "member": 1773,
      "close": 1774,
      "ethiop": 1775,
      "groups": 1776,
      "done": 1777,
      "mun": 1778,
      "nal": 1779,
      "tren": 1780,
      "ories": 1781,
      "ission": 1782,
      "stim": 1783,
      "lost": 1784,
      "cession": 1785,
      "avail": 1786,
      "2015": 1787,
      "funding": 1788,
      "conditions": 1789,
      "iveness": 1790,
      "particip": 1791,
      "legit": 1792,
      "migration": 1793,
      "standards": 1794,
      "palest": 1795,
      "administration": 1796,
      "moment": 1797,
      "stimul": 1798,
      "11": 1799,
      "40": 1800,
      "blo": 1801,
      "dol": 1802,
      "eting": 1803,
      "ped": 1804,
      "sw": 1805,
      "san": 1806,
      "said": 1807,
      "wise": 1808,
      "ream": 1809,
      "conne": 1810,
      "nearly": 1811,
      "essential": 1812,
      "here": 1813,
      "sovere": 1814,
      "ify": 1815,
      "pread": 1816,
      "previous": 1817,
      "drug": 1818,
      "2014": 1819,
      "relation": 1820,
      "japans": 1821,
      "demon": 1822,
      "particular": 1823,
      "promise": 1824,
      "terrorism": 1825,
      "scale": 1826,
      "dollar": 1827,
      "sovereign": 1828,
      "bol": 1829,
      "bod": 1830,
      "lon": 1831,
      "nar": 1832,
      "rain": 1833,
      "ued": 1834,
      "defin": 1835,
      "abo": 1836,
      "respect": 1837,
      "weap": 1838,
      "exist": 1839,
      "lif": 1840,
      "live": 1841,
      "works": 1842,
      "gets": 1843,
      "management": 1844,
      "rench": 1845,
      "owing": 1846,
      "popular": 1847,
      "elections": 1848,
      "borrow": 1849,
      "university": 1850,
      "information": 1851,
      "predict": 1852,
      "skills": 1853,
      "connect": 1854,
      "ake": 1855,
      "bilateral": 1856,
      "gas": 1857,
      "hy": 1858,
      "ired": 1859,
      "kind": 1860,
      "pan": 1861,
      "yor": 1862,
      "anal": 1863,
      "rod": 1864,
      "constr": 1865,
      "abs": 1866,
      "usion": 1867,
      "urban": 1868,
      "activ": 1869,
      "cru": 1870,
      "indic": 1871,
      "pressure": 1872,
      "finally": 1873,
      "frame": 1874,
      "produce": 1875,
      "dram": 1876,
      "laun": 1877,
      "largely": 1878,
      "viet": 1879,
      "makes": 1880,
      "sense": 1881,
      "influ": 1882,
      "profess": 1883,
      "clean": 1884,
      "flows": 1885,
      "vulner": 1886,
      "relationship": 1887,
      "city": 1888,
      "pass": 1889,
      "var": 1890,
      "vol": 1891,
      "rele": 1892,
      "ensus": 1893,
      "stability": 1894,
      "sec": 1895,
      "trillion": 1896,
      "proper": 1897,
      "exports": 1898,
      "grad": 1899,
      "grap": 1900,
      "doing": 1901,
      "introd": 1902,
      "twent": 1903,
      "risks": 1904,
      "powerful": 1905,
      "ification": 1906,
      "media": 1907,
      "conduct": 1908,
      "huge": 1909,
      "known": 1910,
      "deficits": 1911,
      "organizations": 1912,
      "traditional": 1913,
      "pursu": 1914,
      "extreme": 1915,
      "fundamental": 1916,
      "york": 1917,
      "draw": 1918,
      "french": 1919,
      "gen": 1920,
      "hi": 1921,
      "ients": 1922,
      "late": 1923,
      "mand": 1924,
      "ron": 1925,
      "vast": 1926,
      "wers": 1927,
      "rely": 1928,
      "recession": 1929,
      "era": 1930,
      "offer": 1931,
      "ili": 1932,
      "behind": 1933,
      "expl": 1934,
      "polar": 1935,
      "ender": 1936,
      "mark": 1937,
      "politicians": 1938,
      "adequ": 1939,
      "relations": 1940,
      "design": 1941,
      "solid": 1942,
      "subst": 1943,
      "consensus": 1944,
      "north": 1945,
      "commitment": 1946,
      "range": 1947,
      "organization": 1948,
      "sufficient": 1949,
      "integration": 1950,
      "complex": 1951,
      "strengthen": 1952,
      "currency": 1953,
      "bad": 1954,
      "fast": 1955,
      "sis": 1956,
      "alger": 1957,
      "arian": 1958,
      "older": 1959,
      "nothing": 1960,
      "afford": 1961,
      "thern": 1962,
      "ived": 1963,
      "feat": 1964,
      "press": 1965,
      "achiev": 1966,
      "serv": 1967,
      "forest": 1968,
      "rais": 1969,
      "utional": 1970,
      "lands": 1971,
      "special": 1972,
      "stronger": 1973,
      "favor": 1974,
      "london": 1975,
      "bs": 1976,
      "cies": 1977,
      "ith": 1978,
      "ky": 1979,
      "side": 1980,
      "ald": 1981,
      "itable": 1982,
      "outs": 1983,
      "acade": 1984,
      "wee": 1985,
      "excl": 1986,
      "soon": 1987,
      "teach": 1988,
      "quick": 1989,
      "meeting": 1990,
      "center": 1991,
      "positive": 1992,
      "supply": 1993,
      "german": 1994,
      "197": 1995,
      "industry": 1996,
      "ugg": 1997,
      "trumps": 1998,
      "treaty": 1999,
      "decision": 2000,
      "suggest": 2001,
      "millions": 2002,
      "rules": 2003,
      "nigeria": 2004,
      "secretary": 2005,
      "weapons": 2006,
      "divid": 2007,
      "io": 2008,
      "mut": 2009,
      "reli": 2010,
      "altern": 2011,
      "severe": 2012,
      "chance": 2013,
      "verse": 2014,
      "commod": 2015,
      "poin": 2016,
      "fear": 2017,
      "antic": 2018,
      "putin": 2019,
      "solution": 2020,
      "voters": 2021,
      "coll": 2022,
      "currently": 2023,
      "sectors": 2024,
      "things": 2025,
      "legal": 2026,
      "path": 2027,
      "benefit": 2028,
      "revolution": 2029,
      "study": 2030,
      "students": 2031,
      "sahar": 2032,
      "building": 2033,
      "covery": 2034,
      "initiative": 2035,
      "truth": 2036,
      "korea": 2037,
      "above": 2038,
      "25": 2039,
      "ath": 2040,
      "bill": 2041,
      "dy": 2042,
      "sar": 2043,
      "vacc": 2044,
      "win": 2045,
      "acce": 2046,
      "began": 2047,
      "forced": 2048,
      "mot": 2049,
      "prob": 2050,
      "amoun": 2051,
      "neigh": 2052,
      "export": 2053,
      "worse": 2054,
      "quar": 2055,
      "feel": 2056,
      "outcomes": 2057,
      "news": 2058,
      "commission": 2059,
      "goal": 2060,
      "inequality": 2061,
      "ideas": 2062,
      "2017": 2063,
      "compared": 2064,
      "instead": 2065,
      "medic": 2066,
      "reven": 2067,
      "matter": 2068,
      "suffer": 2069,
      "1990s": 2070,
      "multilateral": 2071,
      "officials": 2072,
      "experience": 2073,
      "improved": 2074,
      "massive": 2075,
      "rule": 2076,
      "prosperity": 2077,
      "subsid": 2078,
      "palestin": 2079,
      "15": 2080,
      "cat": 2081,
      "equal": 2082,
      "jour": 2083,
      "nt": 2084,
      "sto": 2085,
      "along": 2086,
      "amb": 2087,
      "counter": 2088,
      "having": 2089,
      "poll": 2090,
      "washing": 2091,
      "worldwide": 2092,
      "pression": 2093,
      "tail": 2094,
      "brid": 2095,
      "lling": 2096,
      "obvious": 2097,
      "highly": 2098,
      "justice": 2099,
      "related": 2100,
      "imately": 2101,
      "products": 2102,
      "donors": 2103,
      "succeed": 2104,
      "lines": 2105,
      "failure": 2106,
      "clearly": 2107,
      "moral": 2108,
      "communic": 2109,
      "push": 2110,
      "18": 2111,
      "ament": 2112,
      "bro": 2113,
      "dest": 2114,
      "eus": 2115,
      "field": 2116,
      "gl": 2117,
      "hic": 2118,
      "ured": 2119,
      "really": 2120,
      "ator": 2121,
      "attract": 2122,
      "arily": 2123,
      "let": 2124,
      "loss": 2125,
      "resol": 2126,
      "soci": 2127,
      "ified": 2128,
      "fered": 2129,
      "indian": 2130,
      "creation": 2131,
      "discus": 2132,
      "disorder": 2133,
      "relig": 2134,
      "additional": 2135,
      "independ": 2136,
      "industries": 2137,
      "structural": 2138,
      "russian": 2139,
      "agreements": 2140,
      "movement": 2141,
      "decline": 2142,
      "wrong": 2143,
      "maintain": 2144,
      "consequences": 2145,
      "washington": 2146,
      "div": 2147,
      "fix": 2148,
      "gor": 2149,
      "mess": 2150,
      "name": 2151,
      "sil": 2152,
      "ze": 2153,
      "insur": 2154,
      "ret": 2155,
      "renew": 2156,
      "orm": 2157,
      "assum": 2158,
      "exchange": 2159,
      "reduct": 2160,
      "taken": 2161,
      "syr": 2162,
      "drive": 2163,
      "transition": 2164,
      "summit": 2165,
      "responsibility": 2166,
      "russi": 2167,
      "failed": 2168,
      "successful": 2169,
      "keny": 2170,
      "meanwhile": 2171,
      "thinking": 2172,
      "authorities": 2173,
      "individual": 2174,
      "corruption": 2175,
      "saharan": 2176,
      "dynam": 2177,
      "bt": 2178,
      "bed": 2179,
      "cil": 2180,
      "cise": 2181,
      "fun": 2182,
      "rw": 2183,
      "rat": 2184,
      "wish": 2185,
      "ination": 2186,
      "asse": 2187,
      "forman": 2188,
      "forward": 2189,
      "unfortunately": 2190,
      "amp": 2191,
      "poo": 2192,
      "held": 2193,
      "heav": 2194,
      "plom": 2195,
      "reducing": 2196,
      "istance": 2197,
      "performan": 2198,
      "parts": 2199,
      "meet": 2200,
      "efficient": 2201,
      "boom": 2202,
      "leader": 2203,
      "2010": 2204,
      "six": 2205,
      "vict": 2206,
      "diplom": 2207,
      "voc": 2208,
      "ternal": 2209,
      "respond": 2210,
      "results": 2211,
      "democrats": 2212,
      "majority": 2213,
      "month": 2214,
      "occur": 2215,
      "negotiations": 2216,
      "electric": 2217,
      "incentives": 2218,
      "ethiopia": 2219,
      "performance": 2220,
      "70": 2221,
      "gir": 2222,
      "gender": 2223,
      "list": 2224,
      "later": 2225,
      "sof": 2226,
      "ale": 2227,
      "orig": 2228,
      "tou": 2229,
      "argue": 2230,
      "ste": 2231,
      "dep": 2232,
      "seen": 2233,
      "chas": 2234,
      "convent": 2235,
      "conserv": 2236,
      "imper": 2237,
      "immedi": 2238,
      "loo": 2239,
      "ounced": 2240,
      "powers": 2241,
      "wel": 2242,
      "external": 2243,
      "output": 2244,
      "event": 2245,
      "grand": 2246,
      "going": 2247,
      "globalization": 2248,
      "peoples": 2249,
      "object": 2250,
      "italy": 2251,
      "crises": 2252,
      "debate": 2253,
      "solar": 2254,
      "helping": 2255,
      "fert": 2256,
      "businesses": 2257,
      "ibility": 2258,
      "advant": 2259,
      "certainly": 2260,
      "target": 2261,
      "reaching": 2262,
      "natural": 2263,
      "argued": 2264,
      "british": 2265,
      "mobil": 2266,
      "source": 2267,
      "disease": 2268,
      "legitim": 2269,
      "substant": 2270,
      "ather": 2271,
      "bom": 2272,
      "ders": 2273,
      "fig": 2274,
      "fem": 2275,
      "give": 2276,
      "mort": 2277,
      "oid": 2278,
      "usu": 2279,
      "rein": 2280,
      "ites": 2281,
      "leav": 2282,
      "sept": 2283,
      "seven": 2284,
      "vered": 2285,
      "bel": 2286,
      "conv": 2287,
      "trust": 2288,
      "ember": 2289,
      "words": 2290,
      "soviet": 2291,
      "opin": 2292,
      "porters": 2293,
      "economists": 2294,
      "ference": 2295,
      "istic": 2296,
      "audi": 2297,
      "black": 2298,
      "internet": 2299,
      "warming": 2300,
      "hood": 2301,
      "surv": 2302,
      "divers": 2303,
      "woman": 2304,
      "koz": 2305,
      "koso": 2306,
      "service": 2307,
      "joh": 2308,
      "join": 2309,
      "resource": 2310,
      "rants": 2311,
      "limited": 2312,
      "societies": 2313,
      "critic": 2314,
      "authority": 2315,
      "patients": 2316,
      "similarly": 2317,
      "competit": 2318,
      "experien": 2319,
      "cheap": 2320,
      "personal": 2321,
      "corporate": 2322,
      "determin": 2323,
      "tests": 2324,
      "elsewhere": 2325,
      "demonstr": 2326,
      "framework": 2327,
      "sarkoz": 2328,
      "origin": 2329,
      "september": 2330,
      "egy": 2331,
      "gains": 2332,
      "hous": 2333,
      "mex": 2334,
      "mist": 2335,
      "mater": 2336,
      "nic": 2337,
      "none": 2338,
      "ses": 2339,
      "sound": 2340,
      "tions": 2341,
      "yield": 2342,
      "enn": 2343,
      "trou": 2344,
      "loc": 2345,
      "usive": 2346,
      "urg": 2347,
      "ially": 2348,
      "parli": 2349,
      "coordin": 2350,
      "strugg": 2351,
      "parties": 2352,
      "economics": 2353,
      "prep": 2354,
      "europeans": 2355,
      "regime": 2356,
      "avoid": 2357,
      "2000": 2358,
      "2009": 2359,
      "productive": 2360,
      "include": 2361,
      "bush": 2362,
      "explo": 2363,
      "borders": 2364,
      "direction": 2365,
      "single": 2366,
      "protection": 2367,
      "attacks": 2368,
      "scientific": 2369,
      "statist": 2370,
      "situation": 2371,
      "digital": 2372,
      "muslim": 2373,
      "adequate": 2374,
      "mexic": 2375,
      "cup": 2376,
      "either": 2377,
      "fs": 2378,
      "gs": 2379,
      "hib": 2380,
      "jun": 2381,
      "rad": 2382,
      "rural": 2383,
      "wat": 2384,
      "inev": 2385,
      "tool": 2386,
      "beha": 2387,
      "immun": 2388,
      "council": 2389,
      "que": 2390,
      "plies": 2391,
      "prin": 2392,
      "ously": 2393,
      "bot": 2394,
      "increases": 2395,
      "continues": 2396,
      "engine": 2397,
      "reality": 2398,
      "seeking": 2399,
      "emerg": 2400,
      "treatment": 2401,
      "purchas": 2402,
      "save": 2403,
      "prospect": 2404,
      "cultural": 2405,
      "deliver": 2406,
      "shift": 2407,
      "beginning": 2408,
      "stimulus": 2409,
      "probably": 2410,
      "away": 2411,
      "border": 2412,
      "cand": 2413,
      "jan": 2414,
      "mur": 2415,
      "nav": 2416,
      "pak": 2417,
      "sides": 2418,
      "tro": 2419,
      "uary": 2420,
      "repe": 2421,
      "ering": 2422,
      "sea": 2423,
      "below": 2424,
      "loans": 2425,
      "neg": 2426,
      "excess": 2427,
      "geor": 2428,
      "pled": 2429,
      "rences": 2430,
      "mechan": 2431,
      "events": 2432,
      "disput": 2433,
      "board": 2434,
      "book": 2435,
      "frag": 2436,
      "whole": 2437,
      "ultimately": 2438,
      "spain": 2439,
      "ension": 2440,
      "proved": 2441,
      "firm": 2442,
      "basic": 2443,
      "helped": 2444,
      "tali": 2445,
      "cases": 2446,
      "seek": 2447,
      "bipolar": 2448,
      "questions": 2449,
      "regulatory": 2450,
      "barack": 2451,
      "meaning": 2452,
      "industrialization": 2453,
      "migrants": 2454,
      "significantly": 2455,
      "prising": 2456,
      "historical": 2457,
      "concerns": 2458,
      "primary": 2459,
      "friend": 2460,
      "hunger": 2461,
      "available": 2462,
      "acceler": 2463,
      "russias": 2464,
      "fertility": 2465,
      "behavi": 2466,
      "cu": 2467,
      "cold": 2468,
      "ii": 2469,
      "jud": 2470,
      "sco": 2471,
      "tre": 2472,
      "alli": 2473,
      "ilies": 2474,
      "seed": 2475,
      "becoming": 2476,
      "training": 2477,
      "imes": 2478,
      "moving": 2479,
      "proport": 2480,
      "abilities": 2481,
      "neither": 2482,
      "affair": 2483,
      "except": 2484,
      "opposition": 2485,
      "paris": 2486,
      "present": 2487,
      "augh": 2488,
      "forms": 2489,
      "driven": 2490,
      "basis": 2491,
      "collabor": 2492,
      "donald": 2493,
      "technological": 2494,
      "committed": 2495,
      "families": 2496,
      "appear": 2497,
      "established": 2498,
      "shows": 2499,
      "contrast": 2500,
      "placed": 2501,
      "households": 2502,
      "vulnerable": 2503,
      "relev": 2504,
      "secure": 2505,
      "alternative": 2506,
      "funct": 2507,
      "rwanda": 2508,
      "victory": 2509,
      "kosovo": 2510,
      "egypt": 2511,
      "parliament": 2512,
      "candid": 2513,
      "pakistan": 2514,
      "flo": 2515,
      "frequ": 2516,
      "hit": 2517,
      "ivers": 2518,
      "lan": 2519,
      "mach": 2520,
      "rid": 2521,
      "sou": 2522,
      "spread": 2523,
      "vital": 2524,
      "recomm": 2525,
      "record": 2526,
      "recovery": 2527,
      "ero": 2528,
      "atically": 2529,
      "enorm": 2530,
      "ali": 2531,
      "itarian": 2532,
      "icts": 2533,
      "asian": 2534,
      "associ": 2535,
      "story": 2536,
      "unlikely": 2537,
      "prohib": 2538,
      "compl": 2539,
      "aints": 2540,
      "ays": 2541,
      "tee": 2542,
      "actually": 2543,
      "creating": 2544,
      "pressed": 2545,
      "therefore": 2546,
      "span": 2547,
      "sym": 2548,
      "restric": 2549,
      "2012": 2550,
      "2013": 2551,
      "2016": 2552,
      "continued": 2553,
      "compens": 2554,
      "company": 2555,
      "transport": 2556,
      "factors": 2557,
      "destruct": 2558,
      "ological": 2559,
      "standing": 2560,
      "everywhere": 2561,
      "months": 2562,
      "consumer": 2563,
      "thought": 2564,
      "focused": 2565,
      "appears": 2566,
      "decisions": 2567,
      "initiatives": 2568,
      "improving": 2569,
      "construction": 2570,
      "mutual": 2571,
      "syria": 2572,
      "electricity": 2573,
      "john": 2574,
      "behavior": 2575,
      "mag": 2576,
      "sl": 2577,
      "spr": 2578,
      "insp": 2579,
      "theless": 2580,
      "acqu": 2581,
      "became": 2582,
      "advoc": 2583,
      "igno": 2584,
      "iring": 2585,
      "neur": 2586,
      "ided": 2587,
      "kept": 2588,
      "lier": 2589,
      "allies": 2590,
      "reduced": 2591,
      "cancer": 2592,
      "distribut": 2593,
      "iple": 2594,
      "preced": 2595,
      "preneur": 2596,
      "kingdom": 2597,
      "fran": 2598,
      "avi": 2599,
      "serve": 2600,
      "lesson": 2601,
      "learning": 2602,
      "turning": 2603,
      "suring": 2604,
      "descr": 2605,
      "emphas": 2606,
      "greatest": 2607,
      "roughly": 2608,
      "vote": 2609,
      "easy": 2610,
      "seemed": 2611,
      "territ": 2612,
      "joint": 2613,
      "studies": 2614,
      "critical": 2615,
      "widely": 2616,
      "foundation": 2617,
      "recognize": 2618,
      "required": 2619,
      "britain": 2620,
      "providing": 2621,
      "practices": 2622,
      "parents": 2623,
      "receive": 2624,
      "schol": 2625,
      "uncertainty": 2626,
      "collective": 2627,
      "quickly": 2628,
      "bridge": 2629,
      "mechanism": 2630,
      "enormous": 2631,
      "80": 2632,
      "bust": 2633,
      "batt": 2634,
      "cir": 2635,
      "cul": 2636,
      "dict": 2637,
      "fare": 2638,
      "hiv": 2639,
      "mad": 2640,
      "mber": 2641,
      "pack": 2642,
      "ring": 2643,
      "sent": 2644,
      "tend": 2645,
      "uals": 2646,
      "xim": 2647,
      "repreneur": 2648,
      "enable": 2649,
      "entrepreneur": 2650,
      "lever": 2651,
      "ilt": 2652,
      "acter": 2653,
      "accur": 2654,
      "agen": 2655,
      "agreed": 2656,
      "estate": 2657,
      "tele": 2658,
      "actions": 2659,
      "parad": 2660,
      "met": 2661,
      "prev": 2662,
      "police": 2663,
      "changing": 2664,
      "idea": 2665,
      "larger": 2666,
      "surve": 2667,
      "presidential": 2668,
      "generate": 2669,
      "talks": 2670,
      "planet": 2671,
      "caused": 2672,
      "liter": 2673,
      "following": 2674,
      "universities": 2675,
      "writ": 2676,
      "steps": 2677,
      "rapidly": 2678,
      "status": 2679,
      "experts": 2680,
      "reserve": 2681,
      "damage": 2682,
      "trend": 2683,
      "influence": 2684,
      "graphic": 2685,
      "introduced": 2686,
      "pollution": 2687,
      "material": 2688,
      "100": 2689,
      "45": 2690,
      "abe": 2691,
      "cities": 2692,
      "da": 2693,
      "ered": 2694,
      "fill": 2695,
      "gun": 2696,
      "gain": 2697,
      "giving": 2698,
      "hop": 2699,
      "iency": 2700,
      "pain": 2701,
      "round": 2702,
      "sun": 2703,
      "smo": 2704,
      "size": 2705,
      "won": 2706,
      "thod": 2707,
      "rect": 2708,
      "stag": 2709,
      "concl": 2710,
      "unless": 2711,
      "imports": 2712,
      "lose": 2713,
      "adjust": 2714,
      "compre": 2715,
      "ague": 2716,
      "empt": 2717,
      "opium": 2718,
      "shar": 2719,
      "uster": 2720,
      "answer": 2721,
      "plans": 2722,
      "discipl": 2723,
      "partly": 2724,
      "obam": 2725,
      "typ": 2726,
      "produc": 2727,
      "hosp": 2728,
      "surpl": 2729,
      "mission": 2730,
      "supported": 2731,
      "simple": 2732,
      "took": 2733,
      "responsible": 2734,
      "visit": 2735,
      "everyone": 2736,
      "limit": 2737,
      "biggest": 2738,
      "equally": 2739,
      "effectively": 2740,
      "character": 2741,
      "communist": 2742,
      "ordinary": 2743,
      "returns": 2744,
      "greece": 2745,
      "priority": 2746,
      "transformation": 2747,
      "islamic": 2748,
      "points": 2749,
      "palestinian": 2750,
      "poorest": 2751,
      "advantage": 2752,
      "legitimacy": 2753,
      "opinion": 2754,
      "sarkozy": 2755,
      "taliban": 2756,
      "proportion": 2757,
      "relevant": 2758,
      "compreh": 2759,
      "ahead": 2760,
      "auster": 2761,
      "crop": 2762,
      "dream": 2763,
      "dgs": 2764,
      "fers": 2765,
      "game": 2766,
      "ju": 2767,
      "mac": 2768,
      "mine": 2769,
      "reve": 2770,
      "algor": 2771,
      "ands": 2772,
      "lying": 2773,
      "conference": 2774,
      "imf": 2775,
      "impossible": 2776,
      "propos": 2777,
      "abil": 2778,
      "aggress": 2779,
      "extra": 2780,
      "shared": 2781,
      "shoc": 2782,
      "teen": 2783,
      "izes": 2784,
      "mel": 2785,
      "stri": 2786,
      "discrimin": 2787,
      "lled": 2788,
      "llig": 2789,
      "something": 2790,
      "changed": 2791,
      "supposed": 2792,
      "raise": 2793,
      "undermin": 2794,
      "intellig": 2795,
      "assess": 2796,
      "learn": 2797,
      "2011": 2798,
      "surprising": 2799,
      "factor": 2800,
      "engagement": 2801,
      "settle": 2802,
      "consist": 2803,
      "getting": 2804,
      "dont": 2805,
      "expans": 2806,
      "harv": 2807,
      "legisl": 2808,
      "strategies": 2809,
      "uganda": 2810,
      "ysis": 2811,
      "targets": 2812,
      "consumers": 2813,
      "belief": 2814,
      "terrorists": 2815,
      "recognition": 2816,
      "competition": 2817,
      "millenn": 2818,
      "provided": 2819,
      "superconduct": 2820,
      "specific": 2821,
      "defense": 2822,
      "doubt": 2823,
      "estimated": 2824,
      "estimates": 2825,
      "sanct": 2826,
      "dollars": 2827,
      "crucial": 2828,
      "dramatically": 2829,
      "collap": 2830,
      "amount": 2831,
      "quarter": 2832,
      "revenues": 2833,
      "stock": 2834,
      "religious": 2835,
      "competitiveness": 2836,
      "radical": 2837,
      "affairs": 2838,
      "flood": 2839,
      "hospital": 2840,
      "austerity": 2841,
      "algorith": 2842,
      "bul": 2843,
      "bure": 2844,
      "cast": 2845,
      "ded": 2846,
      "faster": 2847,
      "llect": 2848,
      "rist": 2849,
      "race": 2850,
      "sha": 2851,
      "wo": 2852,
      "enh": 2853,
      "roy": 2854,
      "dece": 2855,
      "deval": 2856,
      "track": 2857,
      "lot": 2858,
      "white": 2859,
      "mother": 2860,
      "comput": 2861,
      "maxim": 2862,
      "heart": 2863,
      "ops": 2864,
      "crime": 2865,
      "persu": 2866,
      "prise": 2867,
      "indias": 2868,
      "meant": 2869,
      "eful": 2870,
      "aug": 2871,
      "precise": 2872,
      "intellect": 2873,
      "putins": 2874,
      "father": 2875,
      "guar": 2876,
      "technical": 2877,
      "throughout": 2878,
      "sustained": 2879,
      "sustainability": 2880,
      "normal": 2881,
      "choice": 2882,
      "taxes": 2883,
      "directly": 2884,
      "matters": 2885,
      "tradition": 2886,
      "profound": 2887,
      "bond": 2888,
      "regulation": 2889,
      "gests": 2890,
      "followed": 2891,
      "travel": 2892,
      "models": 2893,
      "conflicts": 2894,
      "happen": 2895,
      "prison": 2896,
      "earlier": 2897,
      "liberalization": 2898,
      "suggests": 2899,
      "scientists": 2900,
      "republicans": 2901,
      "ukrain": 2902,
      "temper": 2903,
      "encourage": 2904,
      "promoting": 2905,
      "adopted": 2906,
      "diagnosis": 2907,
      "panel": 2908,
      "launched": 2909,
      "outside": 2910,
      "independent": 2911,
      "insurance": 2912,
      "reduction": 2913,
      "dynamic": 2914,
      "expansion": 2915,
      "bound": 2916,
      "drop": 2917,
      "eg": 2918,
      "gap": 2919,
      "ior": 2920,
      "lu": 2921,
      "ping": 2922,
      "sens": 2923,
      "tt": 2924,
      "wants": 2925,
      "ony": 2926,
      "aled": 2927,
      "aria": 2928,
      "arrange": 2929,
      "room": 2930,
      "lebr": 2931,
      "sex": 2932,
      "christ": 2933,
      "confront": 2934,
      "unions": 2935,
      "whom": 2936,
      "adap": 2937,
      "celebr": 2938,
      "overall": 2939,
      "porary": 2940,
      "merely": 2941,
      "commer": 2942,
      "ieth": 2943,
      "intervent": 2944,
      "developments": 2945,
      "upon": 2946,
      "spur": 2947,
      "space": 2948,
      "undermine": 2949,
      "lessons": 2950,
      "minor": 2951,
      "minim": 2952,
      "unders": 2953,
      "2001": 2954,
      "host": 2955,
      "cyber": 2956,
      "transparen": 2957,
      "debts": 2958,
      "vice": 2959,
      "importance": 2960,
      "useful": 2961,
      "harm": 2962,
      "announced": 2963,
      "institutional": 2964,
      "office": 2965,
      "viewed": 2966,
      "aimed": 2967,
      "cuts": 2968,
      "running": 2969,
      "measure": 2970,
      "azil": 2971,
      "individuals": 2972,
      "safety": 2973,
      "latest": 2974,
      "confidence": 2975,
      "analysis": 2976,
      "suffering": 2977,
      "eventually": 2978,
      "leaving": 2979,
      "statistics": 2980,
      "bottom": 2981,
      "southern": 2982,
      "spring": 2983,
      "prevail": 2984,
      "comprehensive": 2985,
      "bureau": 2986,
      "temperat": 2987,
      "12": 2988,
      "aths": 2989,
      "eli": 2990,
      "eight": 2991,
      "gul": 2992,
      "lending": 2993,
      "nine": 2994,
      "rig": 2995,
      "sess": 2996,
      "tor": 2997,
      "tly": 2998,
      "ture": 2999,
      "tack": 3000,
      "vill": 3001,
      "ining": 3002,
      "anger": 3003,
      "replace": 3004,
      "atl": 3005,
      "itious": 3006,
      "arms": 3007,
      "assu": 3008,
      "offered": 3009,
      "stress": 3010,
      "stream": 3011,
      "depart": 3012,
      "immigration": 3013,
      "area": 3014,
      "pet": 3015,
      "embr": 3016,
      "shia": 3017,
      "renmin": 3018,
      "2030": 3019,
      "core": 3020,
      "margin": 3021,
      "likewise": 3022,
      "brazil": 3023,
      "bert": 3024,
      "idered": 3025,
      "spend": 3026,
      "ishing": 3027,
      "correct": 3028,
      "assistance": 3029,
      "anyone": 3030,
      "2004": 3031,
      "2007": 3032,
      "victim": 3033,
      "solve": 3034,
      "talent": 3035,
      "considered": 3036,
      "holders": 3037,
      "link": 3038,
      "demands": 3039,
      "reasons": 3040,
      "occup": 3041,
      "cape": 3042,
      "facing": 3043,
      "facilit": 3044,
      "barri": 3045,
      "pointed": 3046,
      "reached": 3047,
      "malaria": 3048,
      "accountability": 3049,
      "equip": 3050,
      "critics": 3051,
      "universal": 3052,
      "nato": 3053,
      "argument": 3054,
      "complete": 3055,
      "ecb": 3056,
      "contrary": 3057,
      "reflects": 3058,
      "diseases": 3059,
      "friends": 3060,
      "participation": 3061,
      "twenty": 3062,
      "designed": 3063,
      "academic": 3064,
      "vaccines": 3065,
      "girls": 3066,
      "immediate": 3067,
      "mortg": 3068,
      "convin": 3069,
      "housing": 3070,
      "prepared": 3071,
      "inevitable": 3072,
      "tools": 3073,
      "principl": 3074,
      "obamas": 3075,
      "sanctions": 3076,
      "aut": 3077,
      "dar": 3078,
      "fle": 3079,
      "nu": 3080,
      "pac": 3081,
      "paid": 3082,
      "tan": 3083,
      "tic": 3084,
      "table": 3085,
      "thous": 3086,
      "inct": 3087,
      "ancing": 3088,
      "remark": 3089,
      "theory": 3090,
      "enom": 3091,
      "told": 3092,
      "aries": 3093,
      "leave": 3094,
      "devast": 3095,
      "aceful": 3096,
      "bear": 3097,
      "try": 3098,
      "ational": 3099,
      "iment": 3100,
      "imag": 3101,
      "weather": 3102,
      "worth": 3103,
      "worst": 3104,
      "herent": 3105,
      "overcome": 3106,
      "manage": 3107,
      "actors": 3108,
      "istans": 3109,
      "clin": 3110,
      "waste": 3111,
      "foss": 3112,
      "balances": 3113,
      "effic": 3114,
      "grown": 3115,
      "doct": 3116,
      "bles": 3117,
      "internal": 3118,
      "served": 3119,
      "investing": 3120,
      "highest": 3121,
      "wars": 3122,
      "provides": 3123,
      "capable": 3124,
      "196": 3125,
      "drought": 3126,
      "whereas": 3127,
      "healthy": 3128,
      "added": 3129,
      "remained": 3130,
      "demographic": 3131,
      "buy": 3132,
      "built": 3133,
      "holding": 3134,
      "appropri": 3135,
      "pair": 3136,
      "virt": 3137,
      "born": 3138,
      "plants": 3139,
      "tarif": 3140,
      "trading": 3141,
      "brea": 3142,
      "addressing": 3143,
      "believ": 3144,
      "terrorist": 3145,
      "cambridge": 3146,
      "nature": 3147,
      "recognized": 3148,
      "competitive": 3149,
      "schools": 3150,
      "sources": 3151,
      "promote": 3152,
      "launch": 3153,
      "twentieth": 3154,
      "week": 3155,
      "commodity": 3156,
      "kenya": 3157,
      "soft": 3158,
      "criticism": 3159,
      "mexico": 3160,
      "prospects": 3161,
      "repeated": 3162,
      "george": 3163,
      "precedent": 3164,
      "hopes": 3165,
      "discrimination": 3166,
      "guaran": 3167,
      "fossil": 3168,
      "ah": 3169,
      "bab": 3170,
      "bors": 3171,
      "fire": 3172,
      "hur": 3173,
      "hund": 3174,
      "kar": 3175,
      "lad": 3176,
      "lies": 3177,
      "mil": 3178,
      "moun": 3179,
      "mir": 3180,
      "mdgs": 3181,
      "nc": 3182,
      "pen": 3183,
      "task": 3184,
      "wit": 3185,
      "wed": 3186,
      "your": 3187,
      "ensuring": 3188,
      "alia": 3189,
      "alban": 3190,
      "ster": 3191,
      "stable": 3192,
      "stree": 3193,
      "deals": 3194,
      "depression": 3195,
      "deaths": 3196,
      "ches": 3197,
      "chron": 3198,
      "unlike": 3199,
      "whel": 3200,
      "vert": 3201,
      "ldp": 3202,
      "ables": 3203,
      "arely": 3204,
      "peaceful": 3205,
      "ager": 3206,
      "uries": 3207,
      "ket": 3208,
      "exe": 3209,
      "liqu": 3210,
      "overwhel": 3211,
      "shap": 3212,
      "team": 3213,
      "tered": 3214,
      "outcome": 3215,
      "plat": 3216,
      "activity": 3217,
      "princ": 3218,
      "otherwise": 3219,
      "frustr": 3220,
      "sometimes": 3221,
      "putting": 3222,
      "2005": 3223,
      "2006": 3224,
      "engage": 3225,
      "generations": 3226,
      "addition": 3227,
      "colle": 3228,
      "custom": 3229,
      "extent": 3230,
      "ghana": 3231,
      "structure": 3232,
      "advance": 3233,
      "afghanistans": 3234,
      "mitted": 3235,
      "faced": 3236,
      "difference": 3237,
      "promises": 3238,
      "promised": 3239,
      "phys": 3240,
      "laws": 3241,
      "greenhouse": 3242,
      "burden": 3243,
      "dependent": 3244,
      "reported": 3245,
      "himself": 3246,
      "breakthrough": 3247,
      "relatively": 3248,
      "body": 3249,
      "narr": 3250,
      "existing": 3251,
      "dramatic": 3252,
      "explain": 3253,
      "neighbor": 3254,
      "tough": 3255,
      "deploy": 3256,
      "conventional": 3257,
      "immunization": 3258,
      "negative": 3259,
      "langu": 3260,
      "associated": 3261,
      "destruction": 3262,
      "typically": 3263,
      "precisely": 3264,
      "intervention": 3265,
      "atlantic": 3266,
      "principles": 3267,
      "efficiency": 3268,
      "hundred": 3269,
      "bir": 3270,
      "due": 3271,
      "eld": 3272,
      "ets": 3273,
      "hon": 3274,
      "hor": 3275,
      "ns": 3276,
      "nes": 3277,
      "pi": 3278,
      "smar": 3279,
      "skept": 3280,
      "tight": 3281,
      "treas": 3282,
      "ws": 3283,
      "wind": 3284,
      "yes": 3285,
      "enforce": 3286,
      "tober": 3287,
      "arr": 3288,
      "stal": 3289,
      "ley": 3290,
      "dee": 3291,
      "defeat": 3292,
      "death": 3293,
      "tric": 3294,
      "implic": 3295,
      "ada": 3296,
      "moved": 3297,
      "afd": 3298,
      "optim": 3299,
      "fel": 3300,
      "feed": 3301,
      "izum": 3302,
      "ples": 3303,
      "acting": 3304,
      "perman": 3305,
      "clint": 3306,
      "covered": 3307,
      "auto": 3308,
      "goes": 3309,
      "takes": 3310,
      "obst": 3311,
      "thereby": 3312,
      "supporters": 3313,
      "capit": 3314,
      "2002": 3315,
      "days": 3316,
      "transfer": 3317,
      "talk": 3318,
      "setting": 3319,
      "cash": 3320,
      "bankers": 3321,
      "northern": 3322,
      "calls": 3323,
      "koizum": 3324,
      "offers": 3325,
      "limits": 3326,
      "october": 3327,
      "causes": 3328,
      "threatened": 3329,
      "mitt": 3330,
      "movements": 3331,
      "differences": 3332,
      "innovative": 3333,
      "cked": 3334,
      "declared": 3335,
      "bonds": 3336,
      "israeli": 3337,
      "pattern": 3338,
      "savings": 3339,
      "contribute": 3340,
      "fuels": 3341,
      "republican": 3342,
      "temporary": 3343,
      "constitutional": 3344,
      "reserves": 3345,
      "dangerous": 3346,
      "scen": 3347,
      "previously": 3348,
      "motiv": 3349,
      "neighbors": 3350,
      "subsidies": 3351,
      "ambitious": 3352,
      "heavily": 3353,
      "experienced": 3354,
      "struggle": 3355,
      "emergence": 3356,
      "describ": 3357,
      "battle": 3358,
      "intelligence": 3359,
      "shape": 3360,
      "bureaucr": 3361,
      "renminbi": 3362,
      "appropriate": 3363,
      "execut": 3364,
      "24": 3365,
      "35": 3366,
      "bid": 3367,
      "cum": 3368,
      "dc": 3369,
      "du": 3370,
      "dro": 3371,
      "die": 3372,
      "equality": 3373,
      "god": 3374,
      "hom": 3375,
      "iers": 3376,
      "lend": 3377,
      "mas": 3378,
      "mix": 3379,
      "ni": 3380,
      "sold": 3381,
      "saudi": 3382,
      "went": 3383,
      "wides": 3384,
      "zero": 3385,
      "revers": 3386,
      "reject": 3387,
      "online": 3388,
      "enem": 3389,
      "ality": 3390,
      "isol": 3391,
      "tour": 3392,
      "ari": 3393,
      "army": 3394,
      "stall": 3395,
      "stabil": 3396,
      "robert": 3397,
      "lets": 3398,
      "degree": 3399,
      "acle": 3400,
      "acies": 3401,
      "chem": 3402,
      "chair": 3403,
      "trig": 3404,
      "trip": 3405,
      "mented": 3406,
      "abroad": 3407,
      "compromise": 3408,
      "near": 3409,
      "resto": 3410,
      "resist": 3411,
      "withdraw": 3412,
      "exceed": 3413,
      "empower": 3414,
      "lied": 3415,
      "hear": 3416,
      "options": 3417,
      "sharing": 3418,
      "crip": 3419,
      "canada": 3420,
      "disaster": 3421,
      "final": 3422,
      "commissions": 3423,
      "acknow": 3424,
      "formal": 3425,
      "uck": 3426,
      "regimes": 3427,
      "uded": 3428,
      "brought": 3429,
      "elimin": 3430,
      "spent": 3431,
      "sphere": 3432,
      "owners": 3433,
      "worked": 3434,
      "workforce": 3435,
      "learned": 3436,
      "flag": 3437,
      "compon": 3438,
      "guide": 3439,
      "medical": 3440,
      "medium": 3441,
      "subject": 3442,
      "younger": 3443,
      "donor": 3444,
      "educated": 3445,
      "turned": 3446,
      "resulting": 3447,
      "signed": 3448,
      "easier": 3449,
      "committee": 3450,
      "dpj": 3451,
      "ried": 3452,
      "network": 3453,
      "innovations": 3454,
      "views": 3455,
      "partner": 3456,
      "promising": 3457,
      "persist": 3458,
      "perspect": 3459,
      "israels": 3460,
      "happened": 3461,
      "depends": 3462,
      "hands": 3463,
      "necessarily": 3464,
      "allowed": 3465,
      "bringing": 3466,
      "broader": 3467,
      "micro": 3468,
      "coalition": 3469,
      "corporations": 3470,
      "double": 3471,
      "deeply": 3472,
      "claims": 3473,
      "expert": 3474,
      "expanded": 3475,
      "involve": 3476,
      "1989": 3477,
      "partnerships": 3478,
      "trends": 3479,
      "narrow": 3480,
      "defined": 3481,
      "constraints": 3482,
      "volat": 3483,
      "algerias": 3484,
      "achieving": 3485,
      "catast": 3486,
      "assets": 3487,
      "usually": 3488,
      "nonetheless": 3489,
      "naval": 3490,
      "troops": 3491,
      "distribution": 3492,
      "survey": 3493,
      "surplus": 3494,
      "macro": 3495,
      "millennium": 3496,
      "collapse": 3497,
      "marginal": 3498,
      "language": 3499,
      "widespread": 3500,
      "16": 3501,
      "500": 3502,
      "aj": 3503,
      "aip": 3504,
      "austr": 3505,
      "bing": 3506,
      "bia": 3507,
      "card": 3508,
      "dial": 3509,
      "ij": 3510,
      "nals": 3511,
      "oec": 3512,
      "wa": 3513,
      "wall": 3514,
      "yas": 3515,
      "yle": 3516,
      "ina": 3517,
      "ania": 3518,
      "refe": 3519,
      "remind": 3520,
      "aling": 3521,
      "esity": 3522,
      "oring": 3523,
      "ision": 3524,
      "itation": 3525,
      "itter": 3526,
      "itude": 3527,
      "ase": 3528,
      "asset": 3529,
      "oute": 3530,
      "stage": 3531,
      "stead": 3532,
      "robust": 3533,
      "becomes": 3534,
      "forum": 3535,
      "ching": 3536,
      "unable": 3537,
      "proli": 3538,
      "aba": 3539,
      "opol": 3540,
      "oppos": 3541,
      "plant": 3542,
      "2050": 3543,
      "presid": 3544,
      "marked": 3545,
      "fron": 3546,
      "leads": 3547,
      "brut": 3548,
      "berlin": 3549,
      "obesity": 3550,
      "ireland": 3551,
      "supports": 3552,
      "underlying": 3553,
      "politically": 3554,
      "produced": 3555,
      "193": 3556,
      "1945": 3557,
      "assad": 3558,
      "decided": 3559,
      "presidents": 3560,
      "deser": 3561,
      "stands": 3562,
      "fertil": 3563,
      "inclusive": 3564,
      "colon": 3565,
      "womens": 3566,
      "lasting": 3567,
      "spee": 3568,
      "capitalism": 3569,
      "keynes": 3570,
      "everything": 3571,
      "employed": 3572,
      "educational": 3573,
      "doesnt": 3574,
      "researchers": 3575,
      "revol": 3576,
      "closer": 3577,
      "faces": 3578,
      "farming": 3579,
      "purpose": 3580,
      "establishing": 3581,
      "establishment": 3582,
      "represents": 3583,
      "integrated": 3584,
      "aware": 3585,
      "started": 3586,
      "starters": 3587,
      "combined": 3588,
      "implemented": 3589,
      "fighting": 3590,
      "entirely": 3591,
      "latin": 3592,
      "1980s": 3593,
      "dominated": 3594,
      "affected": 3595,
      "blood": 3596,
      "borrowing": 3597,
      "activities": 3598,
      "various": 3599,
      "property": 3600,
      "achieved": 3601,
      "raised": 3602,
      "kyo": 3603,
      "journal": 3604,
      "journals": 3605,
      "message": 3606,
      "conservative": 3607,
      "femin": 3608,
      "determined": 3609,
      "recommend": 3610,
      "ignore": 3611,
      "discipline": 3612,
      "legislation": 3613,
      "algorithms": 3614,
      "wood": 3615,
      "december": 3616,
      "barriers": 3617,
      "witness": 3618,
      "chronic": 3619,
      "birth": 3620,
      "elder": 3621,
      "clinton": 3622,
      "capita": 3623,
      "aipac": 3624,
      "oecd": 3625,
      "prolifer": 3626,
      "fertiliz": 3627,
      "bold": 3628,
      "cross": 3629,
      "fif": 3630,
      "gone": 3631,
      "gates": 3632,
      "hab": 3633,
      "hill": 3634,
      "hour": 3635,
      "rating": 3636,
      "sin": 3637,
      "sal": 3638,
      "sight": 3639,
      "scar": 3640,
      "wal": 3641,
      "wing": 3642,
      "wont": 3643,
      "wave": 3644,
      "zhe": 3645,
      "ane": 3646,
      "rer": 3647,
      "atmo": 3648,
      "enjo": 3649,
      "alco": 3650,
      "alzhe": 3651,
      "ison": 3652,
      "toler": 3653,
      "arct": 3654,
      "arrest": 3655,
      "asp": 3656,
      "stake": 3657,
      "dead": 3658,
      "defl": 3659,
      "detail": 3660,
      "acts": 3661,
      "condem": 3662,
      "consolid": 3663,
      "trying": 3664,
      "imers": 3665,
      "imbalance": 3666,
      "protests": 3667,
      "abled": 3668,
      "complic": 3669,
      "iron": 3670,
      "resolution": 3671,
      "ulation": 3672,
      "aft": 3673,
      "exer": 3674,
      "liby": 3675,
      "quant": 3676,
      "fewer": 3677,
      "percent": 3678,
      "perfect": 3679,
      "balanced": 3680,
      "pressing": 3681,
      "disrup": 3682,
      "aud": 3683,
      "door": 3684,
      "bled": 3685,
      "blame": 3686,
      "elites": 3687,
      "lls": 3688,
      "intensive": 3689,
      "financed": 3690,
      "governmental": 3691,
      "2018": 3692,
      "olog": 3693,
      "version": 3694,
      "guard": 3695,
      "condition": 3696,
      "lah": 3697,
      "umping": 3698,
      "speed": 3699,
      "eastern": 3700,
      "career": 3701,
      "delay": 3702,
      "failing": 3703,
      "payment": 3704,
      "payments": 3705,
      "commitments": 3706,
      "famous": 3707,
      "closed": 3708,
      "played": 3709,
      "phil": 3710,
      "improvement": 3711,
      "numer": 3712,
      "coverage": 3713,
      "greenspan": 3714,
      "showed": 3715,
      "ethnic": 3716,
      "happens": 3717,
      "earth": 3718,
      "books": 3719,
      "understanding": 3720,
      "fourth": 3721,
      "mobile": 3722,
      "culture": 3723,
      "places": 3724,
      "priorities": 3725,
      "constitution": 3726,
      "criminal": 3727,
      "pursue": 3728,
      "offering": 3729,
      "raising": 3730,
      "academ": 3731,
      "losses": 3732,
      "resolve": 3733,
      "objective": 3734,
      "substantially": 3735,
      "scholars": 3736,
      "agencies": 3737,
      "paradox": 3738,
      "crops": 3739,
      "teenth": 3740,
      "devaluation": 3741,
      "ukraine": 3742,
      "ttip": 3743,
      "adapt": 3744,
      "victims": 3745,
      "thousands": 3746,
      "remarkable": 3747,
      "tariffs": 3748,
      "repeatedly": 3749,
      "navaln": 3750,
      "dialo": 3751,
      "presidency": 3752,
      "speech": 3753,
      "alcohol": 3754,
      "alzheimers": 3755,
      "arctic": 3756,
      "percentage": 3757,
      "13": 3758,
      "cip": 3759,
      "gem": 3760,
      "gay": 3761,
      "ief": 3762,
      "keral": 3763,
      "master": 3764,
      "ots": 3765,
      "pun": 3766,
      "pens": 3767,
      "pace": 3768,
      "sn": 3769,
      "son": 3770,
      "som": 3771,
      "spo": 3772,
      "spect": 3773,
      "sought": 3774,
      "uge": 3775,
      "uations": 3776,
      "uine": 3777,
      "wid": 3778,
      "zones": 3779,
      "iny": 3780,
      "instr": 3781,
      "inadequate": 3782,
      "ange": 3783,
      "reward": 3784,
      "remitt": 3785,
      "erb": 3786,
      "alloc": 3787,
      "orial": 3788,
      "armed": 3789,
      "ario": 3790,
      "ased": 3791,
      "stay": 3792,
      "omin": 3793,
      "illegal": 3794,
      "separ": 3795,
      "select": 3796,
      "begun": 3797,
      "forcing": 3798,
      "champ": 3799,
      "ung": 3800,
      "sures": 3801,
      "implies": 3802,
      "immigrants": 3803,
      "imbalances": 3804,
      "log": 3805,
      "igate": 3806,
      "agg": 3807,
      "pool": 3808,
      "ular": 3809,
      "hegem": 3810,
      "notably": 3811,
      "oppon": 3812,
      "fell": 3813,
      "acted": 3814,
      "perform": 3815,
      "park": 3816,
      "centers": 3817,
      "doz": 3818,
      "iety": 3819,
      "march": 3820,
      "pret": 3821,
      "brain": 3822,
      "intens": 3823,
      "published": 3824,
      "calcul": 3825,
      "empire": 3826,
      "jewish": 3827,
      "sett": 3828,
      "populations": 3829,
      "ministers": 3830,
      "speak": 3831,
      "expensive": 3832,
      "elector": 3833,
      "credible": 3834,
      "includes": 3835,
      "structures": 3836,
      "accounted": 3837,
      "planning": 3838,
      "targe": 3839,
      "refuge": 3840,
      "netany": 3841,
      "suffered": 3842,
      "addressed": 3843,
      "falling": 3844,
      "potentially": 3845,
      "write": 3846,
      "hardly": 3847,
      "negotiate": 3848,
      "considerable": 3849,
      "allowing": 3850,
      "aza": 3851,
      "combat": 3852,
      "species": 3853,
      "ukuni": 3854,
      "holder": 3855,
      "received": 3856,
      "closely": 3857,
      "constrained": 3858,
      "absent": 3859,
      "genuine": 3860,
      "divided": 3861,
      "anticip": 3862,
      "communications": 3863,
      "diplomacy": 3864,
      "looking": 3865,
      "looks": 3866,
      "welcome": 3867,
      "substantial": 3868,
      "figures": 3869,
      "female": 3870,
      "usual": 3871,
      "frequently": 3872,
      "prohibition": 3873,
      "mechanisms": 3874,
      "producers": 3875,
      "settlement": 3876,
      "harvard": 3877,
      "arrangements": 3878,
      "nutr": 3879,
      "doctors": 3880,
      "karz": 3881,
      "liquid": 3882,
      "treasury": 3883,
      "deeper": 3884,
      "afdb": 3885,
      "scenario": 3886,
      "yasukuni": 3887,
      "dialogue": 3888,
      "instru": 3889,
      "21": 3890,
      "27": 3891,
      "90": 3892,
      "ais": 3893,
      "ding": 3894,
      "gavi": 3895,
      "hed": 3896,
      "ji": 3897,
      "obl": 3898,
      "rhe": 3899,
      "rying": 3900,
      "uous": 3901,
      "wan": 3902,
      "wages": 3903,
      "thr": 3904,
      "ancy": 3905,
      "recon": 3906,
      "retain": 3907,
      "ery": 3908,
      "enabl": 3909,
      "altru": 3910,
      "orient": 3911,
      "iti": 3912,
      "itud": 3913,
      "itative": 3914,
      "arity": 3915,
      "ingly": 3916,
      "asion": 3917,
      "aside": 3918,
      "outr": 3919,
      "sem": 3920,
      "sets": 3921,
      "selling": 3922,
      "accommod": 3923,
      "acerb": 3924,
      "beij": 3925,
      "cher": 3926,
      "chain": 3927,
      "unde": 3928,
      "unprecedent": 3929,
      "impose": 3930,
      "nobel": 3931,
      "proposed": 3932,
      "absol": 3933,
      "comfor": 3934,
      "nets": 3935,
      "agers": 3936,
      "resc": 3937,
      "resili": 3938,
      "idb": 3939,
      "approv": 3940,
      "affirm": 3941,
      "exacerb": 3942,
      "heard": 3943,
      "soil": 3944,
      "geo": 3945,
      "shown": 3946,
      "2020": 3947,
      "creates": 3948,
      "evol": 3949,
      "grav": 3950,
      "autom": 3951,
      "doch": 3952,
      "preci": 3953,
      "curric": 3954,
      "globally": 3955,
      "contain": 3956,
      "context": 3957,
      "possib": 3958,
      "spir": 3959,
      "minent": 3960,
      "driving": 3961,
      "puts": 3962,
      "faith": 3963,
      "summer": 3964,
      "ology": 3965,
      "attempt": 3966,
      "remaining": 3967,
      "surely": 3968,
      "hero": 3969,
      "turns": 3970,
      "carry": 3971,
      "tried": 3972,
      "easily": 3973,
      "credibility": 3974,
      "annivers": 3975,
      "artic": 3976,
      "memory": 3977,
      "unique": 3978,
      "emerge": 3979,
      "emerged": 3980,
      "shortfall": 3981,
      "liberty": 3982,
      "successfully": 3983,
      "approaches": 3984,
      "causing": 3985,
      "threats": 3986,
      "threatening": 3987,
      "grew": 3988,
      "declining": 3989,
      "aims": 3990,
      "brex": 3991,
      "playing": 3992,
      "profits": 3993,
      "feder": 3994,
      "processes": 3995,
      "equival": 3996,
      "numbers": 3997,
      "patri": 3998,
      "weakness": 3999,
      "decisive": 4000,
      "amaz": 4001,
      "controls": 4002,
      "dependence": 4003,
      "informal": 4004,
      "starting": 4005,
      "greek": 4006,
      "regardless": 4007,
      "willingness": 4008,
      "delivery": 4009,
      "pushing": 4010,
      "involved": 4011,
      "incentive": 4012,
      "acceptable": 4013,
      "momentum": 4014,
      "bloc": 4015,
      "connected": 4016,
      "analy": 4017,
      "absor": 4018,
      "absence": 4019,
      "professor": 4020,
      "gradu": 4021,
      "pressive": 4022,
      "pointing": 4023,
      "billions": 4024,
      "revenue": 4025,
      "pushed": 4026,
      "fields": 4027,
      "diplomatic": 4028,
      "occurred": 4029,
      "imperative": 4030,
      "bomb": 4031,
      "figure": 4032,
      "experiencing": 4033,
      "mistake": 4034,
      "trouble": 4035,
      "june": 4036,
      "january": 4037,
      "murdoch": 4038,
      "accelerate": 4039,
      "collaboration": 4040,
      "candidate": 4041,
      "accurate": 4042,
      "july": 4043,
      "consistent": 4044,
      "intellectual": 4045,
      "minority": 4046,
      "transparency": 4047,
      "toric": 4048,
      "devastating": 4049,
      "overwhelming": 4050,
      "narrative": 4051,
      "permanent": 4052,
      "referen": 4053,
      "proliferation": 4054,
      "atmosphere": 4055,
      "deflation": 4056,
      "oblig": 4057,
      "rhetoric": 4058,
      "unprecedented": 4059,
      "bly": 4060,
      "crow": 4061,
      "dum": 4062,
      "dumping": 4063,
      "fil": 4064,
      "fres": 4065,
      "fli": 4066,
      "gold": 4067,
      "gave": 4068,
      "hang": 4069,
      "map": 4070,
      "mend": 4071,
      "na": 4072,
      "naz": 4073,
      "pp": 4074,
      "pin": 4075,
      "pie": 4076,
      "pension": 4077,
      "rout": 4078,
      "rific": 4079,
      "sk": 4080,
      "slight": 4081,
      "tu": 4082,
      "tens": 4083,
      "ym": 4084,
      "zania": 4085,
      "incomes": 4086,
      "reag": 4087,
      "recru": 4088,
      "thening": 4089,
      "attribut": 4090,
      "aly": 4091,
      "esco": 4092,
      "orthod": 4093,
      "asked": 4094,
      "leban": 4095,
      "ilient": 4096,
      "acute": 4097,
      "conce": 4098,
      "concentr": 4099,
      "olas": 4100,
      "unsustainable": 4101,
      "unilateral": 4102,
      "unesco": 4103,
      "imposed": 4104,
      "addis": 4105,
      "admitted": 4106,
      "mention": 4107,
      "ames": 4108,
      "abes": 4109,
      "aband": 4110,
      "ababa": 4111,
      "resistance": 4112,
      "resilient": 4113,
      "iding": 4114,
      "weight": 4115,
      "ulate": 4116,
      "ulated": 4117,
      "lived": 4118,
      "word": 4119,
      "sole": 4120,
      "notion": 4121,
      "geopol": 4122,
      "option": 4123,
      "shr": 4124,
      "manip": 4125,
      "managing": 4126,
      "economist": 4127,
      "quo": 4128,
      "febr": 4129,
      "fears": 4130,
      "prince": 4131,
      "portug": 4132,
      "balk": 4133,
      "presence": 4134,
      "gry": 4135,
      "bling": 4136,
      "poses": 4137,
      "posing": 4138,
      "possibility": 4139,
      "possess": 4140,
      "supplies": 4141,
      "type": 4142,
      "warned": 4143,
      "producing": 4144,
      "2003": 4145,
      "mainly": 4146,
      "surgical": 4147,
      "cycl": 4148,
      "transfers": 4149,
      "epide": 4150,
      "generating": 4151,
      "court": 4152,
      "realize": 4153,
      "bub": 4154,
      "buying": 4155,
      "herit": 4156,
      "interested": 4157,
      "importantly": 4158,
      "elected": 4159,
      "apparen": 4160,
      "taxation": 4161,
      "operations": 4162,
      "linked": 4163,
      "accounts": 4164,
      "humanity": 4165,
      "liberation": 4166,
      "seneg": 4167,
      "declar": 4168,
      "insist": 4169,
      "ception": 4170,
      "phenom": 4171,
      "fallen": 4172,
      "traject": 4173,
      "findings": 4174,
      "charge": 4175,
      "cooperate": 4176,
      "smaller": 4177,
      "slowdown": 4178,
      "contribution": 4179,
      "strengthening": 4180,
      "aiib": 4181,
      "fueled": 4182,
      "providers": 4183,
      "currencies": 4184,
      "encouraged": 4185,
      "keeping": 4186,
      "adopt": 4187,
      "scand": 4188,
      "diagnosed": 4189,
      "availability": 4190,
      "legitimate": 4191,
      "essentially": 4192,
      "activists": 4193,
      "professional": 4194,
      "relationships": 4195,
      "properly": 4196,
      "mandar": 4197,
      "fastest": 4198,
      "algeria": 4199,
      "affordable": 4200,
      "1970s": 4201,
      "severely": 4202,
      "palestinians": 4203,
      "broken": 4204,
      "ratio": 4205,
      "assem": 4206,
      "convention": 4207,
      "welfare": 4208,
      "mobilize": 4209,
      "survive": 4210,
      "urgent": 4211,
      "muslims": 4212,
      "excessive": 4213,
      "aught": 4214,
      "function": 4215,
      "functional": 4216,
      "candidates": 4217,
      "machine": 4218,
      "franc": 4219,
      "madrid": 4220,
      "entrepreneurs": 4221,
      "leveraging": 4222,
      "written": 4223,
      "materials": 4224,
      "sharp": 4225,
      "commercial": 4226,
      "nineteenth": 4227,
      "assume": 4228,
      "facilitate": 4229,
      "convinced": 4230,
      "pacific": 4231,
      "tanzania": 4232,
      "believed": 4233,
      "principle": 4234,
      "hundreds": 4235,
      "expertise": 4236,
      "elderly": 4237,
      "libya": 4238,
      "remittances": 4239,
      "champion": 4240,
      "aggreg": 4241,
      "enabling": 4242,
      "beijing": 4243,
      "resilience": 4244,
      "approval": 4245,
      "affirmative": 4246,
      "curricul": 4247,
      "brexit": 4248,
      "orthodox": 4249,
      "february": 4250,
      "phenomen": 4251,
      "14": 4252,
      "aus": 4253,
      "bted": 4254,
      "dut": 4255,
      "dden": 4256,
      "daugh": 4257,
      "fal": 4258,
      "gent": 4259,
      "gers": 4260,
      "gaza": 4261,
      "iwan": 4262,
      "jail": 4263,
      "ki": 4264,
      "og": 4265,
      "oing": 4266,
      "phas": 4267,
      "rd": 4268,
      "sac": 4269,
      "sad": 4270,
      "squ": 4271,
      "uable": 4272,
      "intra": 4273,
      "rey": 4274,
      "refer": 4275,
      "onom": 4276,
      "erup": 4277,
      "alle": 4278,
      "align": 4279,
      "iter": 4280,
      "tow": 4281,
      "icial": 4282,
      "asser": 4283,
      "style": 4284,
      "rose": 4285,
      "roll": 4286,
      "ille": 4287,
      "seas": 4288,
      "acles": 4289,
      "chains": 4290,
      "conven": 4291,
      "sudden": 4292,
      "whate": 4293,
      "utter": 4294,
      "cere": 4295,
      "exce": 4296,
      "expressed": 4297,
      "lihood": 4298,
      "ifying": 4299,
      "quite": 4300,
      "endit": 4301,
      "craft": 4302,
      "prize": 4303,
      "mere": 4304,
      "meles": 4305,
      "method": 4306,
      "owed": 4307,
      "disar": 4308,
      "disap": 4309,
      "disproportion": 4310,
      "grant": 4311,
      "umb": 4312,
      "content": 4313,
      "taiwan": 4314,
      "mostly": 4315,
      "obser": 4316,
      "somewhat": 4317,
      "invested": 4318,
      "rail": 4319,
      "owned": 4320,
      "policymaking": 4321,
      "highlight": 4322,
      "warm": 4323,
      "italian": 4324,
      "195": 4325,
      "assist": 4326,
      "fulfill": 4327,
      "anything": 4328,
      "caucas": 4329,
      "surprise": 4330,
      "relent": 4331,
      "transatlantic": 4332,
      "desper": 4333,
      "desire": 4334,
      "base": 4335,
      "basel": 4336,
      "adding": 4337,
      "examples": 4338,
      "subsequ": 4339,
      "inclusion": 4340,
      "courage": 4341,
      "voted": 4342,
      "custo": 4343,
      "costly": 4344,
      "valuable": 4345,
      "populist": 4346,
      "norm": 4347,
      "expendit": 4348,
      "extend": 4349,
      "legacy": 4350,
      "choose": 4351,
      "choices": 4352,
      "reformers": 4353,
      "offset": 4354,
      "included": 4355,
      "paying": 4356,
      "demanding": 4357,
      "closing": 4358,
      "senior": 4359,
      "controlled": 4360,
      "innovators": 4361,
      "regulations": 4362,
      "cutting": 4363,
      "secondary": 4364,
      "male": 4365,
      "equity": 4366,
      "concerning": 4367,
      "authoritarian": 4368,
      "sheet": 4369,
      "negotiated": 4370,
      "multi": 4371,
      "multiple": 4372,
      "requirements": 4373,
      "furthermore": 4374,
      "prises": 4375,
      "contributions": 4376,
      "allows": 4377,
      "earning": 4378,
      "historic": 4379,
      "truly": 4380,
      "seriously": 4381,
      "looked": 4382,
      "maintained": 4383,
      "implementation": 4384,
      "modification": 4385,
      "defend": 4386,
      "claimed": 4387,
      "fundament": 4388,
      "shifting": 4389,
      "distinct": 4390,
      "schem": 4391,
      "hamas": 4392,
      "corrupt": 4393,
      "swed": 4394,
      "drugs": 4395,
      "demonstrate": 4396,
      "sovereignty": 4397,
      "gases": 4398,
      "hypo": 4399,
      "volun": 4400,
      "pursuing": 4401,
      "extremely": 4402,
      "teachers": 4403,
      "meetings": 4404,
      "discussion": 4405,
      "independence": 4406,
      "divide": 4407,
      "renewed": 4408,
      "renewable": 4409,
      "assumed": 4410,
      "reductions": 4411,
      "girl": 4412,
      "immediately": 4413,
      "survival": 4414,
      "diversity": 4415,
      "original": 4416,
      "urgently": 4417,
      "coordination": 4418,
      "coordinated": 4419,
      "emergency": 4420,
      "purchases": 4421,
      "disputes": 4422,
      "alliance": 4423,
      "seeds": 4424,
      "transportation": 4425,
      "daily": 4426,
      "sunni": 4427,
      "revealed": 4428,
      "assessment": 4429,
      "hospitals": 4430,
      "computer": 4431,
      "august": 4432,
      "temperatures": 4433,
      "autonom": 4434,
      "flex": 4435,
      "platform": 4436,
      "smart": 4437,
      "koizumi": 4438,
      "tourism": 4439,
      "chemical": 4440,
      "acknowled": 4441,
      "perspective": 4442,
      "volatility": 4443,
      "fertilizer": 4444,
      "hours": 4445,
      "opponents": 4446,
      "itudes": 4447,
      "absolute": 4448,
      "equivalent": 4449,
      "amazon": 4450,
      "referendum": 4451,
      "fresh": 4452,
      "routine": 4453,
      "slightly": 4454,
      "reagan": 4455,
      "lebanon": 4456,
      "abandon": 4457,
      "geopolit": 4458,
      "portugal": 4459,
      "mandarins": 4460,
      "sacrific": 4461,
      "whatever": 4462,
      "observers": 4463,
      "17": 4464,
      "65": 4465,
      "apo": 4466,
      "ahu": 4467,
      "ball": 4468,
      "boute": 4469,
      "cou": 4470,
      "cate": 4471,
      "cious": 4472,
      "date": 4473,
      "dav": 4474,
      "ee": 4475,
      "gar": 4476,
      "gather": 4477,
      "hum": 4478,
      "iant": 4479,
      "ios": 4480,
      "lus": 4481,
      "lish": 4482,
      "nur": 4483,
      "nak": 4484,
      "ored": 4485,
      "pion": 4486,
      "pil": 4487,
      "rs": 4488,
      "ril": 4489,
      "rac": 4490,
      "rant": 4491,
      "rud": 4492,
      "rarely": 4493,
      "sat": 4494,
      "sive": 4495,
      "scr": 4496,
      "tact": 4497,
      "wis": 4498,
      "wage": 4499,
      "inf": 4500,
      "infect": 4501,
      "inflows": 4502,
      "insufficient": 4503,
      "inherent": 4504,
      "anx": 4505,
      "reverse": 4506,
      "albed": 4507,
      "escape": 4508,
      "isan": 4509,
      "islands": 4510,
      "ispens": 4511,
      "oubted": 4512,
      "ston": 4513,
      "roman": 4514,
      "root": 4515,
      "league": 4516,
      "decess": 4517,
      "decreas": 4518,
      "sell": 4519,
      "forth": 4520,
      "traf": 4521,
      "traction": 4522,
      "susp": 4523,
      "lob": 4524,
      "aded": 4525,
      "adverse": 4526,
      "utes": 4527,
      "nove": 4528,
      "proceed": 4529,
      "amed": 4530,
      "abund": 4531,
      "agro": 4532,
      "poly": 4533,
      "poison": 4534,
      "approved": 4535,
      "opened": 4536,
      "ifically": 4537,
      "sho": 4538,
      "shad": 4539,
      "tees": 4540,
      "managed": 4541,
      "plent": 4542,
      "crimes": 4543,
      "indispens": 4544,
      "antarctic": 4545,
      "co2": 4546,
      "cool": 4547,
      "ongoing": 4548,
      "creative": 4549,
      "thanks": 4550,
      "discovery": 4551,
      "partisan": 4552,
      "marri": 4553,
      "prefer": 4554,
      "predecess": 4555,
      "invent": 4556,
      "bosn": 4557,
      "channe": 4558,
      "ideal": 4559,
      "series": 4560,
      "serbia": 4561,
      "undoubted": 4562,
      "identity": 4563,
      "tware": 4564,
      "twitter": 4565,
      "flaw": 4566,
      "continu": 4567,
      "mug": 4568,
      "akes": 4569,
      "translate": 4570,
      "summ": 4571,
      "funded": 4572,
      "english": 4573,
      "basket": 4574,
      "generally": 4575,
      "instability": 4576,
      "supporting": 4577,
      "attemp": 4578,
      "populism": 4579,
      "backed": 4580,
      "background": 4581,
      "effectiveness": 4582,
      "norms": 4583,
      "democracies": 4584,
      "expense": 4585,
      "easing": 4586,
      "harmon": 4587,
      "apply": 4588,
      "applied": 4589,
      "taxpay": 4590,
      "viable": 4591,
      "anned": 4592,
      "annually": 4593,
      "institution": 4594,
      "institute": 4595,
      "downturn": 4596,
      "accounting": 4597,
      "roads": 4598,
      "refused": 4599,
      "networks": 4600,
      "senate": 4601,
      "facilities": 4602,
      "players": 4603,
      "profit": 4604,
      "processing": 4605,
      "appeared": 4606,
      "improvements": 4607,
      "accountable": 4608,
      "negotiating": 4609,
      "charged": 4610,
      "says": 4611,
      "tunis": 4612,
      "towards": 4613,
      "slowly": 4614,
      "arabia": 4615,
      "strength": 4616,
      "minded": 4617,
      "merit": 4618,
      "predic": 4619,
      "extrem": 4620,
      "budgets": 4621,
      "practical": 4622,
      "practice": 4623,
      "deterrence": 4624,
      "membership": 4625,
      "representatives": 4626,
      "encouraging": 4627,
      "primarily": 4628,
      "wanted": 4629,
      "sanitation": 4630,
      "define": 4631,
      "indicators": 4632,
      "vietnam": 4633,
      "mandate": 4634,
      "iliation": 4635,
      "strengthened": 4636,
      "communication": 4637,
      "discuss": 4638,
      "fixing": 4639,
      "insurg": 4640,
      "retire": 4641,
      "software": 4642,
      "bombs": 4643,
      "reinforce": 4644,
      "yields": 4645,
      "engineering": 4646,
      "purchase": 4647,
      "dispute": 4648,
      "scope": 4649,
      "exception": 4650,
      "spanish": 4651,
      "compensation": 4652,
      "circum": 4653,
      "dictator": 4654,
      "wonder": 4655,
      "shock": 4656,
      "melt": 4657,
      "undermining": 4658,
      "crimea": 4659,
      "lux": 4660,
      "sexual": 4661,
      "christian": 4662,
      "tackling": 4663,
      "embrace": 4664,
      "equipment": 4665,
      "mortgages": 4666,
      "imagine": 4667,
      "virtually": 4668,
      "frustration": 4669,
      "described": 4670,
      "isolation": 4671,
      "restore": 4672,
      "withdrawal": 4673,
      "macroeconomic": 4674,
      "opposite": 4675,
      "colonial": 4676,
      "recommendations": 4677,
      "enjoy": 4678,
      "numerous": 4679,
      "netanyahu": 4680,
      "karzai": 4681,
      "liquidity": 4682,
      "possibly": 4683,
      "anniversary": 4684,
      "flik": 4685,
      "senegal": 4686,
      "assembly": 4687,
      "caucasus": 4688,
      "bouteflik": 4689,
      "albedo": 4690,
      "traffic": 4691,
      "indispensable": 4692,
      "aking": 4693,
      "bin": 4694,
      "bes": 4695,
      "bac": 4696,
      "cli": 4697,
      "cop": 4698,
      "fired": 4699,
      "gins": 4700,
      "hes": 4701,
      "hus": 4702,
      "ik": 4703,
      "nai": 4704,
      "pact": 4705,
      "qa": 4706,
      "rival": 4707,
      "sor": 4708,
      "slo": 4709,
      "swar": 4710,
      "sort": 4711,
      "text": 4712,
      "taught": 4713,
      "zim": 4714,
      "restr": 4715,
      "review": 4716,
      "recover": 4717,
      "retail": 4718,
      "resem": 4719,
      "thetic": 4720,
      "erad": 4721,
      "alar": 4722,
      "ised": 4723,
      "tocol": 4724,
      "tokyo": 4725,
      "ica": 4726,
      "icated": 4727,
      "ician": 4728,
      "eda": 4729,
      "asc": 4730,
      "asive": 4731,
      "aspect": 4732,
      "asias": 4733,
      "stor": 4734,
      "stances": 4735,
      "deliber": 4736,
      "seize": 4737,
      "chur": 4738,
      "chief": 4739,
      "conver": 4740,
      "confron": 4741,
      "trained": 4742,
      "ola": 4743,
      "unaids": 4744,
      "unequal": 4745,
      "unemployed": 4746,
      "impover": 4747,
      "impressive": 4748,
      "lock": 4749,
      "advis": 4750,
      "advert": 4751,
      "prominent": 4752,
      "protocol": 4753,
      "cture": 4754,
      "ceas": 4755,
      "tering": 4756,
      "compar": 4757,
      "irrig": 4758,
      "nether": 4759,
      "agues": 4760,
      "urally": 4761,
      "resent": 4762,
      "iders": 4763,
      "applic": 4764,
      "aff": 4765,
      "math": 4766,
      "mament": 4767,
      "exact": 4768,
      "worsen": 4769,
      "opposed": 4770,
      "haiti": 4771,
      "shut": 4772,
      "poland": 4773,
      "polls": 4774,
      "managers": 4775,
      "ques": 4776,
      "outlook": 4777,
      "active": 4778,
      "actively": 4779,
      "redis": 4780,
      "perception": 4781,
      "inding": 4782,
      "ourselves": 4783,
      "antly": 4784,
      "eurozones": 4785,
      "preser": 4786,
      "pressures": 4787,
      "grim": 4788,
      "ipal": 4789,
      "bless": 4790,
      "interpret": 4791,
      "bangl": 4792,
      "inet": 4793,
      "ultane": 4794,
      "obtain": 4795,
      "identify": 4796,
      "mainstream": 4797,
      "surge": 4798,
      "cycle": 4799,
      "empir": 4800,
      "mists": 4801,
      "missing": 4802,
      "missions": 4803,
      "greatly": 4804,
      "jews": 4805,
      "simultane": 4806,
      "realized": 4807,
      "archite": 4808,
      "statement": 4809,
      "knows": 4810,
      "visible": 4811,
      "ease": 4812,
      "holds": 4813,
      "calling": 4814,
      "harder": 4815,
      "extended": 4816,
      "apped": 4817,
      "beneficial": 4818,
      "operate": 4819,
      "artific": 4820,
      "seeks": 4821,
      "linking": 4822,
      "links": 4823,
      "privile": 4824,
      "shortage": 4825,
      "fails": 4826,
      "mono": 4827,
      "soccer": 4828,
      "foods": 4829,
      "ranging": 4830,
      "student": 4831,
      "adesh": 4832,
      "kenned": 4833,
      "threaten": 4834,
      "threatens": 4835,
      "bias": 4836,
      "centralized": 4837,
      "phone": 4838,
      "saw": 4839,
      "appeal": 4840,
      "initially": 4841,
      "sheets": 4842,
      "1991": 4843,
      "ships": 4844,
      "heads": 4845,
      "saying": 4846,
      "generational": 4847,
      "informed": 4848,
      "germanys": 4849,
      "contributed": 4850,
      "minds": 4851,
      "historically": 4852,
      "reflecting": 4853,
      "extremists": 4854,
      "broadly": 4855,
      "implementing": 4856,
      "secret": 4857,
      "regarding": 4858,
      "ashed": 4859,
      "delivered": 4860,
      "expanding": 4861,
      "involves": 4862,
      "boosting": 4863,
      "digit": 4864,
      "participate": 4865,
      "predictable": 4866,
      "hydro": 4867,
      "profession": 4868,
      "graph": 4869,
      "hike": 4870,
      "explained": 4871,
      "feature": 4872,
      "forestation": 4873,
      "favorable": 4874,
      "weeks": 4875,
      "exclud": 4876,
      "dividend": 4877,
      "amounts": 4878,
      "quarters": 4879,
      "brother": 4880,
      "destroy": 4881,
      "religion": 4882,
      "imperial": 4883,
      "objectives": 4884,
      "mortality": 4885,
      "leaves": 4886,
      "demonstrated": 4887,
      "houses": 4888,
      "prepare": 4889,
      "exploit": 4890,
      "waters": 4891,
      "fragmented": 4892,
      "friendly": 4893,
      "treated": 4894,
      "alliances": 4895,
      "alike": 4896,
      "compensate": 4897,
      "ignored": 4898,
      "territorial": 4899,
      "scholar": 4900,
      "package": 4901,
      "leverage": 4902,
      "proposal": 4903,
      "shocks": 4904,
      "enhance": 4905,
      "royal": 4906,
      "panels": 4907,
      "temperature": 4908,
      "village": 4909,
      "dark": 4910,
      "ncds": 4911,
      "albania": 4912,
      "streets": 4913,
      "shaping": 4914,
      "customers": 4915,
      "honor": 4916,
      "fellow": 4917,
      "patterns": 4918,
      "dub": 4919,
      "trigger": 4920,
      "components": 4921,
      "australia": 4922,
      "brutal": 4923,
      "1930s": 4924,
      "awareness": 4925,
      "navalny": 4926,
      "mastercard": 4927,
      "electoral": 4928,
      "targeted": 4929,
      "nutrition": 4930,
      "reconc": 4931,
      "tensions": 4932,
      "bubble": 4933,
      "trajectory": 4934,
      "aggregate": 4935,
      "orthodoxy": 4936,
      "assert": 4937,
      "disarmament": 4938,
      "sweden": 4939,
      "autonomy": 4940,
      "nakas": 4941,
      "suspic": 4942,
      "plenty": 4943,
      "undoubtedly": 4944,
      "swaraj": 4945,
      "zimbab": 4946,
      "impoverished": 4947,
      "23": 4948,
      "26": 4949,
      "28": 4950,
      "29": 4951,
      "300": 4952,
      "75": 4953,
      "911": 4954,
      "bail": 4955,
      "camer": 4956,
      "copen": 4957,
      "cze": 4958,
      "dim": 4959,
      "dust": 4960,
      "dire": 4961,
      "dys": 4962,
      "emot": 4963,
      "fit": 4964,
      "fate": 4965,
      "fash": 4966,
      "gives": 4967,
      "gaining": 4968,
      "hong": 4969,
      "hagen": 4970,
      "ibe": 4971,
      "kers": 4972,
      "kong": 4973,
      "lag": 4974,
      "lay": 4975,
      "pap": 4976,
      "pli": 4977,
      "psy": 4978,
      "ries": 4979,
      "rum": 4980,
      "swe": 4981,
      "sdr": 4982,
      "sons": 4983,
      "vs": 4984,
      "van": 4985,
      "wider": 4986,
      "wang": 4987,
      "xi": 4988,
      "zbol": 4989,
      "throw": 4990,
      "ink": 4991,
      "inefficient": 4992,
      "remo": 4993,
      "reap": 4994,
      "thein": 4995,
      "onto": 4996,
      "enced": 4997,
      "alleg": 4998,
      "escal": 4999,
      "ising": 5000,
      "isions": 5001,
      "itor": 5002,
      "itably": 5003,
      "tomor": 5004,
      "andas": 5005,
      "arth": 5006,
      "asym": 5007,
      "stric": 5008,
      "rog": 5009,
      "roph": 5010,
      "dered": 5011,
      "determ": 5012,
      "depriv": 5013,
      "depressed": 5014,
      "iled": 5015,
      "sey": 5016,
      "seat": 5017,
      "vehic": 5018,
      "forget": 5019,
      "chen": 5020,
      "chic": 5021,
      "consul": 5022,
      "trap": 5023,
      "trial": 5024,
      "trum": 5025,
      "suu": 5026,
      "supre": 5027,
      "sudan": 5028,
      "loye": 5029,
      "losing": 5030,
      "advice": 5031,
      "utility": 5032,
      "protest": 5033,
      "abd": 5034,
      "abuse": 5035,
      "usions": 5036,
      "illustr": 5037,
      "ounce": 5038,
      "ney": 5039,
      "agency": 5040,
      "weigh": 5041,
      "appreci": 5042,
      "mathem": 5043,
      "emit": 5044,
      "embar": 5045,
      "heat": 5046,
      "hezbol": 5047,
      "oph": 5048,
      "oppose": 5049,
      "oversight": 5050,
      "haven": 5051,
      "planned": 5052,
      "crus": 5053,
      "prag": 5054,
      "code": 5055,
      "coherent": 5056,
      "foot": 5057,
      "efire": 5058,
      "centuries": 5059,
      "prescrip": 5060,
      "discover": 5061,
      "disappear": 5062,
      "ipped": 5063,
      "nationalist": 5064,
      "prepar": 5065,
      "boston": 5066,
      "bright": 5067,
      "brings": 5068,
      "positions": 5069,
      "berlus": 5070,
      "aves": 5071,
      "aving": 5072,
      "inequ": 5073,
      "llor": 5074,
      "ideological": 5075,
      "enses": 5076,
      "intense": 5077,
      "lessly": 5078,
      "publish": 5079,
      "proven": 5080,
      "provision": 5081,
      "twice": 5082,
      "publicly": 5083,
      "drag": 5084,
      "hot": 5085,
      "compound": 5086,
      "cient": 5087,
      "employe": 5088,
      "missed": 5089,
      "generous": 5090,
      "helps": 5091,
      "attitudes": 5092,
      "died": 5093,
      "talking": 5094,
      "monet": 5095,
      "responses": 5096,
      "operating": 5097,
      "offs": 5098,
      "issued": 5099,
      "failures": 5100,
      "advances": 5101,
      "limiting": 5102,
      "occas": 5103,
      "innocent": 5104,
      "director": 5105,
      "organized": 5106,
      "organizing": 5107,
      "compelling": 5108,
      "declare": 5109,
      "declined": 5110,
      "plays": 5111,
      "regular": 5112,
      "regulated": 5113,
      "regulators": 5114,
      "processed": 5115,
      "focusing": 5116,
      "risky": 5117,
      "concerted": 5118,
      "concerned": 5119,
      "criter": 5120,
      "killed": 5121,
      "lawmakers": 5122,
      "1990": 5123,
      "runs": 5124,
      "nevertheless": 5125,
      "finding": 5126,
      "repression": 5127,
      "accordingly": 5128,
      "moderate": 5129,
      "violent": 5130,
      "violations": 5131,
      "element": 5132,
      "ecbs": 5133,
      "openly": 5134,
      "rophe": 5135,
      "manufacture": 5136,
      "mobility": 5137,
      "returned": 5138,
      "modest": 5139,
      "angola": 5140,
      "regarded": 5141,
      "preventing": 5142,
      "incumb": 5143,
      "representation": 5144,
      "lowering": 5145,
      "islamist": 5146,
      "involving": 5147,
      "entering": 5148,
      "enterprises": 5149,
      "oxide": 5150,
      "affecting": 5151,
      "bodies": 5152,
      "livelihood": 5153,
      "urbanization": 5154,
      "indicate": 5155,
      "frameworks": 5156,
      "cleaner": 5157,
      "vulnerability": 5158,
      "secular": 5159,
      "drawn": 5160,
      "solidarity": 5161,
      "sufficiently": 5162,
      "landscape": 5163,
      "relief": 5164,
      "alternatives": 5165,
      "chancellor": 5166,
      "revolutionary": 5167,
      "pollut": 5168,
      "namely": 5169,
      "poorer": 5170,
      "heavy": 5171,
      "conservation": 5172,
      "grandparents": 5173,
      "convince": 5174,
      "audience": 5175,
      "criticized": 5176,
      "determination": 5177,
      "troubled": 5178,
      "inevitably": 5179,
      "georg": 5180,
      "fragile": 5181,
      "tremend": 5182,
      "symbol": 5183,
      "restrictions": 5184,
      "frank": 5185,
      "territory": 5186,
      "tendency": 5187,
      "literacy": 5188,
      "stagn": 5189,
      "stagnation": 5190,
      "concluded": 5191,
      "sharply": 5192,
      "aggressive": 5193,
      "extraordinary": 5194,
      "striking": 5195,
      "harvest": 5196,
      "maximize": 5197,
      "traditionally": 5198,
      "prevailed": 5199,
      "gulf": 5200,
      "department": 5201,
      "embrac": 5202,
      "mortgage": 5203,
      "1960s": 5204,
      "breaking": 5205,
      "guarantee": 5206,
      "hurt": 5207,
      "ncd": 5208,
      "colleagues": 5209,
      "breakthroughs": 5210,
      "neighboring": 5211,
      "pipe": 5212,
      "skeptic": 5213,
      "enforcement": 5214,
      "implications": 5215,
      "obstacles": 5216,
      "motivated": 5217,
      "lenders": 5218,
      "soldiers": 5219,
      "enemies": 5220,
      "ownership": 5221,
      "catastrophe": 5222,
      "steadily": 5223,
      "fifth": 5224,
      "ratings": 5225,
      "scarce": 5226,
      "aspir": 5227,
      "exercise": 5228,
      "kerala": 5229,
      "somalia": 5230,
      "hegemony": 5231,
      "jihad": 5232,
      "rescue": 5233,
      "federation": 5234,
      "piece": 5235,
      "epidemic": 5236,
      "november": 5237,
      "taxpayers": 5238,
      "circumstances": 5239,
      "qaeda": 5240,
      "eradic": 5241,
      "ceasefire": 5242,
      "irrigation": 5243,
      "netherlands": 5244,
      "empirical": 5245,
      "monopoly": 5246,
      "professionals": 5247,
      "nakasone": 5248,
      "copenhagen": 5249,
      "tomorrow": 5250,
      "asymme": 5251,
      "determine": 5252,
      "hezbollah": 5253,
      "employees": 5254,
      "livelihoods": 5255,
      "tremendous": 5256,
      "350": 5257,
      "athe": 5258,
      "aun": 5259,
      "ba": 5260,
      "blow": 5261,
      "cab": 5262,
      "cqu": 5263,
      "dign": 5264,
      "dens": 5265,
      "eco": 5266,
      "fan": 5267,
      "figh": 5268,
      "gal": 5269,
      "g20": 5270,
      "hat": 5271,
      "ires": 5272,
      "len": 5273,
      "night": 5274,
      "oce": 5275,
      "oso": 5276,
      "ocr": 5277,
      "pting": 5278,
      "pestic": 5279,
      "ram": 5280,
      "spot": 5281,
      "tons": 5282,
      "vit": 5283,
      "vlad": 5284,
      "wild": 5285,
      "wake": 5286,
      "xic": 5287,
      "rep": 5288,
      "rew": 5289,
      "reput": 5290,
      "reck": 5291,
      "reports": 5292,
      "ato": 5293,
      "encies": 5294,
      "enabled": 5295,
      "orious": 5296,
      "tood": 5297,
      "tocqu": 5298,
      "armen": 5299,
      "argent": 5300,
      "aspor": 5301,
      "oud": 5302,
      "sts": 5303,
      "stif": 5304,
      "stret": 5305,
      "roof": 5306,
      "decent": 5307,
      "deforestation": 5308,
      "ilton": 5309,
      "sein": 5310,
      "accompan": 5311,
      "bered": 5312,
      "chol": 5313,
      "chir": 5314,
      "trag": 5315,
      "tray": 5316,
      "unwilling": 5317,
      "unknown": 5318,
      "unacceptable": 5319,
      "sums": 5320,
      "imir": 5321,
      "immen": 5322,
      "logic": 5323,
      "adays": 5324,
      "novel": 5325,
      "moves": 5326,
      "prom": 5327,
      "iest": 5328,
      "abbas": 5329,
      "users": 5330,
      "illusion": 5331,
      "resort": 5332,
      "wered": 5333,
      "april": 5334,
      "keley": 5335,
      "exit": 5336,
      "exposed": 5337,
      "explic": 5338,
      "exporters": 5339,
      "liabilities": 5340,
      "worried": 5341,
      "heel": 5342,
      "count": 5343,
      "ife": 5344,
      "ift": 5345,
      "tell": 5346,
      "tels": 5347,
      "manif": 5348,
      "ferences": 5349,
      "enduring": 5350,
      "perce": 5351,
      "perip": 5352,
      "perpet": 5353,
      "indians": 5354,
      "clim": 5355,
      "coast": 5356,
      "ureate": 5357,
      "disas": 5358,
      "dispar": 5359,
      "partial": 5360,
      "dog": 5361,
      "nowadays": 5362,
      "marx": 5363,
      "marsh": 5364,
      "nationalism": 5365,
      "presum": 5366,
      "invasion": 5367,
      "contem": 5368,
      "upward": 5369,
      "fru": 5370,
      "posit": 5371,
      "berkeley": 5372,
      "someone": 5373,
      "serving": 5374,
      "intended": 5375,
      "underpin": 5376,
      "finances": 5377,
      "gery": 5378,
      "identified": 5379,
      "capture": 5380,
      "risen": 5381,
      "publics": 5382,
      "1960": 5383,
      "flight": 5384,
      "decide": 5385,
      "fault": 5386,
      "healthier": 5387,
      "relies": 5388,
      "intoler": 5389,
      "economys": 5390,
      "generated": 5391,
      "install": 5392,
      "attend": 5393,
      "substit": 5394,
      "dioxide": 5395,
      "diaspor": 5396,
      "realistic": 5397,
      "sels": 5398,
      "talib": 5399,
      "voting": 5400,
      "voice": 5401,
      "voices": 5402,
      "laureate": 5403,
      "archy": 5404,
      "populists": 5405,
      "responsib": 5406,
      "signs": 5407,
      "joined": 5408,
      "jobless": 5409,
      "delta": 5410,
      "delhi": 5411,
      "memories": 5412,
      "humanitarian": 5413,
      "river": 5414,
      "mitigate": 5415,
      "facts": 5416,
      "didnt": 5417,
      "focuses": 5418,
      "bigger": 5419,
      "initial": 5420,
      "cognitive": 5421,
      "projected": 5422,
      "industrialized": 5423,
      "migrant": 5424,
      "denied": 5425,
      "measured": 5426,
      "shares": 5427,
      "recognizing": 5428,
      "lacks": 5429,
      "lacking": 5430,
      "weaker": 5431,
      "weakened": 5432,
      "thirds": 5433,
      "charter": 5434,
      "integrate": 5435,
      "ethical": 5436,
      "happy": 5437,
      "happening": 5438,
      "multination": 5439,
      "arguing": 5440,
      "burma": 5441,
      "moroc": 5442,
      "elements": 5443,
      "mindset": 5444,
      "reflected": 5445,
      "civilians": 5446,
      "otic": 5447,
      "combination": 5448,
      "wealthy": 5449,
      "reasonable": 5450,
      "administrative": 5451,
      "ruled": 5452,
      "nigerias": 5453,
      "prevention": 5454,
      "classical": 5455,
      "incident": 5456,
      "represented": 5457,
      "latter": 5458,
      "electron": 5459,
      "distur": 5460,
      "accum": 5461,
      "hamilton": 5462,
      "accepted": 5463,
      "dominate": 5464,
      "dominant": 5465,
      "hungry": 5466,
      "constructive": 5467,
      "korean": 5468,
      "palestine": 5469,
      "panic": 5470,
      "influential": 5471,
      "passed": 5472,
      "variety": 5473,
      "released": 5474,
      "gradually": 5475,
      "introduce": 5476,
      "pursuit": 5477,
      "adequately": 5478,
      "badly": 5479,
      "forests": 5480,
      "raises": 5481,
      "kyi": 5482,
      "exclusive": 5483,
      "teaching": 5484,
      "germans": 5485,
      "uggish": 5486,
      "dividends": 5487,
      "reliance": 5488,
      "vaccine": 5489,
      "medicaid": 5490,
      "cataly": 5491,
      "succeeded": 5492,
      "amplif": 5493,
      "diversify": 5494,
      "joining": 5495,
      "cheaper": 5496,
      "demonstrations": 5497,
      "nicolas": 5498,
      "bushs": 5499,
      "delivering": 5500,
      "neglect": 5501,
      "pledged": 5502,
      "meaningful": 5503,
      "collaborative": 5504,
      "frequent": 5505,
      "recommended": 5506,
      "restrict": 5507,
      "destructive": 5508,
      "sluggish": 5509,
      "advocates": 5510,
      "emphasize": 5511,
      "sentiment": 5512,
      "television": 5513,
      "telecommunications": 5514,
      "writer": 5515,
      "adjusted": 5516,
      "characterized": 5517,
      "aggression": 5518,
      "undermined": 5519,
      "surprisingly": 5520,
      "superconductors": 5521,
      "floods": 5522,
      "flooding": 5523,
      "minimum": 5524,
      "undersco": 5525,
      "understood": 5526,
      "tackle": 5527,
      "stressed": 5528,
      "baby": 5529,
      "mounting": 5530,
      "penal": 5531,
      "street": 5532,
      "college": 5533,
      "horiz": 5534,
      "executives": 5535,
      "enemy": 5536,
      "stabilize": 5537,
      "catastroph": 5538,
      "journalists": 5539,
      "feminism": 5540,
      "habit": 5541,
      "hillary": 5542,
      "details": 5543,
      "ironically": 5544,
      "disruption": 5545,
      "academics": 5546,
      "separate": 5547,
      "underest": 5548,
      "exacerbate": 5549,
      "absorb": 5550,
      "apparently": 5551,
      "curriculum": 5552,
      "phenomenon": 5553,
      "ceremon": 5554,
      "excell": 5555,
      "fundamentals": 5556,
      "geopolitical": 5557,
      "categ": 5558,
      "satis": 5559,
      "lobby": 5560,
      "exactly": 5561,
      "bangladesh": 5562,
      "architecture": 5563,
      "artificial": 5564,
      "zimbabwe": 5565,
      "fashion": 5566,
      "mathemat": 5567,
      "berluscon": 5568,
      "skepticism": 5569,
      "vladimir": 5570,
      "tocquev": 5571,
      "accompanied": 5572,
      "chirac": 5573,
      "immense": 5574,
      "explicit": 5575,
      "peripher": 5576,
      "diaspora": 5577,
      "talibans": 5578,
      "62": 5579,
      "bit": 5580,
      "band": 5581,
      "bian": 5582,
      "binding": 5583,
      "cant": 5584,
      "dated": 5585,
      "dile": 5586,
      "dating": 5587,
      "dimin": 5588,
      "eager": 5589,
      "foun": 5590,
      "fasc": 5591,
      "gained": 5592,
      "gaps": 5593,
      "giant": 5594,
      "hid": 5595,
      "hier": 5596,
      "hiring": 5597,
      "iat": 5598,
      "jin": 5599,
      "ker": 5600,
      "kam": 5601,
      "kest": 5602,
      "kunder": 5603,
      "kish": 5604,
      "kick": 5605,
      "lago": 5606,
      "ners": 5607,
      "oth": 5608,
      "oted": 5609,
      "pict": 5610,
      "rase": 5611,
      "sand": 5612,
      "shel": 5613,
      "tas": 5614,
      "twee": 5615,
      "tension": 5616,
      "via": 5617,
      "wol": 5618,
      "xia": 5619,
      "ximately": 5620,
      "thres": 5621,
      "inj": 5622,
      "indeb": 5623,
      "inability": 5624,
      "insecurity": 5625,
      "intract": 5626,
      "injustice": 5627,
      "inputs": 5628,
      "inherit": 5629,
      "anim": 5630,
      "annex": 5631,
      "ancient": 5632,
      "rem": 5633,
      "rebe": 5634,
      "reaction": 5635,
      "replaced": 5636,
      "removed": 5637,
      "ensu": 5638,
      "toxic": 5639,
      "icel": 5640,
      "icult": 5641,
      "ingu": 5642,
      "ashing": 5643,
      "stance": 5644,
      "storm": 5645,
      "rote": 5646,
      "robi": 5647,
      "rolled": 5648,
      "roots": 5649,
      "lee": 5650,
      "deleg": 5651,
      "deleveraging": 5652,
      "iling": 5653,
      "ilty": 5654,
      "aca": 5655,
      "accus": 5656,
      "lywood": 5657,
      "const": 5658,
      "concre": 5659,
      "congo": 5660,
      "concept": 5661,
      "trill": 5662,
      "train": 5663,
      "traged": 5664,
      "uns": 5665,
      "unle": 5666,
      "imprison": 5667,
      "imposing": 5668,
      "los": 5669,
      "loan": 5670,
      "loom": 5671,
      "locked": 5672,
      "adul": 5673,
      "moon": 5674,
      "moil": 5675,
      "mood": 5676,
      "mosco": 5677,
      "ami": 5678,
      "amin": 5679,
      "ceo": 5680,
      "igor": 5681,
      "igating": 5682,
      "abort": 5683,
      "abenom": 5684,
      "peter": 5685,
      "illness": 5686,
      "comings": 5687,
      "neo": 5688,
      "neu": 5689,
      "resident": 5690,
      "pointe": 5691,
      "posure": 5692,
      "ula": 5693,
      "withstanding": 5694,
      "apart": 5695,
      "appoint": 5696,
      "appointe": 5697,
      "exposure": 5698,
      "worrying": 5699,
      "notwithstanding": 5700,
      "aint": 5701,
      "shor": 5702,
      "manner": 5703,
      "economically": 5704,
      "quie": 5705,
      "fee": 5706,
      "feld": 5707,
      "plum": 5708,
      "permit": 5709,
      "prus": 5710,
      "print": 5711,
      "induced": 5712,
      "indones": 5713,
      "parks": 5714,
      "paralle": 5715,
      "2025": 5716,
      "metr": 5717,
      "struck": 5718,
      "astic": 5719,
      "eva": 5720,
      "odivers": 5721,
      "centered": 5722,
      "discourse": 5723,
      "disabilities": 5724,
      "dissent": 5725,
      "disabled": 5726,
      "grid": 5727,
      "grass": 5728,
      "overnight": 5729,
      "partys": 5730,
      "docu": 5731,
      "oughts": 5732,
      "ieties": 5733,
      "ips": 5734,
      "marine": 5735,
      "blind": 5736,
      "interconnected": 5737,
      "contained": 5738,
      "boj": 5739,
      "boys": 5740,
      "frances": 5741,
      "observed": 5742,
      "pleas": 5743,
      "spill": 5744,
      "forecast": 5745,
      "syri": 5746,
      "intent": 5747,
      "intention": 5748,
      "underway": 5749,
      "lessness": 5750,
      "workplace": 5751,
      "provin": 5752,
      "capabilities": 5753,
      "droughts": 5754,
      "anywhere": 5755,
      "flour": 5756,
      "cali": 5757,
      "2000s": 5758,
      "turkish": 5759,
      "turmoil": 5760,
      "compact": 5761,
      "surgery": 5762,
      "cyprus": 5763,
      "transl": 5764,
      "systemic": 5765,
      "epis": 5766,
      "engaged": 5767,
      "miss": 5768,
      "instance": 5769,
      "guilty": 5770,
      "aftermath": 5771,
      "attain": 5772,
      "imported": 5773,
      "diverse": 5774,
      "courts": 5775,
      "conscious": 5776,
      "valued": 5777,
      "backs": 5778,
      "backing": 5779,
      "sustaining": 5780,
      "socialist": 5781,
      "capitalize": 5782,
      "resulted": 5783,
      "visiting": 5784,
      "harsh": 5785,
      "myth": 5786,
      "pricing": 5787,
      "approximately": 5788,
      "paul": 5789,
      "strongly": 5790,
      "operation": 5791,
      "venture": 5792,
      "shortcomings": 5793,
      "reassuring": 5794,
      "advancing": 5795,
      "successes": 5796,
      "accessible": 5797,
      "directors": 5798,
      "refuse": 5799,
      "biological": 5800,
      "biodivers": 5801,
      "challenged": 5802,
      "rightly": 5803,
      "credited": 5804,
      "childrens": 5805,
      "treating": 5806,
      "treaties": 5807,
      "singapo": 5808,
      "feds": 5809,
      "gotten": 5810,
      "sake": 5811,
      "poorly": 5812,
      "equitable": 5813,
      "killing": 5814,
      "expectations": 5815,
      "expectancy": 5816,
      "foundations": 5817,
      "rupt": 5818,
      "argues": 5819,
      "arguments": 5820,
      "citing": 5821,
      "imped": 5822,
      "initiated": 5823,
      "ecological": 5824,
      "slowed": 5825,
      "awak": 5826,
      "understandable": 5827,
      "historians": 5828,
      "merke": 5829,
      "combating": 5830,
      "pala": 5831,
      "maintaining": 5832,
      "cultiv": 5833,
      "supervision": 5834,
      "specifically": 5835,
      "campaigns": 5836,
      "holland": 5837,
      "placing": 5838,
      "representative": 5839,
      "transformed": 5840,
      "primacy": 5841,
      "distingu": 5842,
      "adopting": 5843,
      "congressional": 5844,
      "consequence": 5845,
      "prosperous": 5846,
      "damaging": 5847,
      "dominance": 5848,
      "collectively": 5849,
      "block": 5850,
      "swit": 5851,
      "defining": 5852,
      "lifest": 5853,
      "borrowers": 5854,
      "kinds": 5855,
      "citys": 5856,
      "ronald": 5857,
      "features": 5858,
      "exclusion": 5859,
      "teacher": 5860,
      "suggested": 5861,
      "suggesting": 5862,
      "mutually": 5863,
      "reliable": 5864,
      "vaccination": 5865,
      "accepting": 5866,
      "medicines": 5867,
      "attracted": 5868,
      "attracting": 5869,
      "letter": 5870,
      "resolving": 5871,
      "discussed": 5872,
      "silent": 5873,
      "assumption": 5874,
      "syrian": 5875,
      "dynamics": 5876,
      "wishes": 5877,
      "responding": 5878,
      "occurs": 5879,
      "listen": 5880,
      "touch": 5881,
      "grandmother": 5882,
      "mobilizing": 5883,
      "reinforced": 5884,
      "opinions": 5885,
      "competitors": 5886,
      "sarkozys": 5887,
      "statistical": 5888,
      "watch": 5889,
      "trees": 5890,
      "symp": 5891,
      "inspire": 5892,
      "inspired": 5893,
      "emphasis": 5894,
      "territories": 5895,
      "circle": 5896,
      "hivaids": 5897,
      "paradig": 5898,
      "filled": 5899,
      "smokest": 5900,
      "adjustment": 5901,
      "produces": 5902,
      "surpluses": 5903,
      "dreams": 5904,
      "proposals": 5905,
      "strikes": 5906,
      "devaluations": 5907,
      "maximizing": 5908,
      "arrangement": 5909,
      "commerce": 5910,
      "hostile": 5911,
      "transparent": 5912,
      "convincing": 5913,
      "clinical": 5914,
      "wastewater": 5915,
      "believes": 5916,
      "wedding": 5917,
      "shaped": 5918,
      "platforms": 5919,
      "stalin": 5920,
      "felt": 5921,
      "describes": 5922,
      "reversed": 5923,
      "chairman": 5924,
      "empowerment": 5925,
      "component": 5926,
      "persistent": 5927,
      "involvement": 5928,
      "wait": 5929,
      "waiting": 5930,
      "revolutions": 5931,
      "bloody": 5932,
      "sino": 5933,
      "doormat": 5934,
      "philoso": 5935,
      "academia": 5936,
      "spoke": 5937,
      "widening": 5938,
      "settling": 5939,
      "instrumental": 5940,
      "altruism": 5941,
      "oriented": 5942,
      "outrage": 5943,
      "comfortable": 5944,
      "spirit": 5945,
      "graduates": 5946,
      "film": 5947,
      "balkan": 5948,
      "declaration": 5949,
      "scandal": 5950,
      "francis": 5951,
      "disproportionately": 5952,
      "flexibility": 5953,
      "david": 5954,
      "pione": 5955,
      "infectious": 5956,
      "inherently": 5957,
      "marriage": 5958,
      "predecessors": 5959,
      "bosnia": 5960,
      "attempts": 5961,
      "extremes": 5962,
      "nairobi": 5963,
      "alarming": 5964,
      "resentment": 5965,
      "redistribut": 5966,
      "preserve": 5967,
      "dysfunctional": 5968,
      "emotional": 5969,
      "psych": 5970,
      "remote": 5971,
      "deprived": 5972,
      "consult": 5973,
      "supreme": 5974,
      "ophob": 5975,
      "manufacturers": 5976,
      "aspirations": 5977,
      "asymmetric": 5978,
      "cabinet": 5979,
      "argentina": 5980,
      "cholera": 5981,
      "tragic": 5982,
      "intolerance": 5983,
      "responsibilities": 5984,
      "morocco": 5985,
      "disturbing": 5986,
      "underscores": 5987,
      "catastrophic": 5988,
      "hidden": 5989,
      "kampala": 5990,
      "indebted": 5991,
      "concrete": 5992,
      "trillions": 5993,
      "abenomics": 5994,
      "indonesia": 5995,
      "biodiversity": 5996,
      "singapore": 5997,
      "smokestack": 5998,
      "34": 5999,
      "400": 6000,
      "700": 6001,
      "aks": 6002,
      "aise": 6003,
      "bc": 6004,
      "bay": 6005,
      "barely": 6006,
      "cô": 6007,
      "cro": 6008,
      "cke": 6009,
      "dir": 6010,
      "ein": 6011,
      "eye": 6012,
      "einst": 6013,
      "fat": 6014,
      "ga": 6015,
      "gb": 6016,
      "gary": 6017,
      "gments": 6018,
      "gbt": 6019,
      "han": 6020,
      "hate": 6021,
      "hire": 6022,
      "hort": 6023,
      "iated": 6024,
      "jim": 6025,
      "jack": 6026,
      "javi": 6027,
      "james": 6028,
      "kin": 6029,
      "kim": 6030,
      "krem": 6031,
      "kgb": 6032,
      "kjavi": 6033,
      "lap": 6034,
      "lights": 6035,
      "lgbt": 6036,
      "mild": 6037,
      "matic": 6038,
      "mck": 6039,
      "mired": 6040,
      "nia": 6041,
      "nard": 6042,
      "oeconomic": 6043,
      "oire": 6044,
      "oks": 6045,
      "ps": 6046,
      "piv": 6047,
      "pca": 6048,
      "rare": 6049,
      "ray": 6050,
      "sli": 6051,
      "spl": 6052,
      "scre": 6053,
      "sports": 6054,
      "tam": 6055,
      "tap": 6056,
      "tics": 6057,
      "tton": 6058,
      "tends": 6059,
      "ub": 6060,
      "vac": 6061,
      "vary": 6062,
      "wound": 6063,
      "waves": 6064,
      "ya": 6065,
      "zen": 6066,
      "inking": 6067,
      "incar": 6068,
      "inaction": 6069,
      "inery": 6070,
      "insey": 6071,
      "ano": 6072,
      "anth": 6073,
      "anch": 6074,
      "revel": 6075,
      "restruct": 6076,
      "repay": 6077,
      "remor": 6078,
      "remember": 6079,
      "recovered": 6080,
      "ature": 6081,
      "ativity": 6082,
      "enlight": 6083,
      "enables": 6084,
      "enacted": 6085,
      "island": 6086,
      "itated": 6087,
      "tot": 6088,
      "arm": 6089,
      "arts": 6090,
      "arrow": 6091,
      "arians": 6092,
      "ingred": 6093,
      "stic": 6094,
      "stone": 6095,
      "staff": 6096,
      "rock": 6097,
      "entail": 6098,
      "omics": 6099,
      "dement": 6100,
      "deem": 6101,
      "devic": 6102,
      "degrad": 6103,
      "devoted": 6104,
      "dearth": 6105,
      "ils": 6106,
      "ilation": 6107,
      "accompl": 6108,
      "behave": 6109,
      "begins": 6110,
      "forge": 6111,
      "cha": 6112,
      "chand": 6113,
      "cham": 6114,
      "confir": 6115,
      "confederation": 6116,
      "triv": 6117,
      "unting": 6118,
      "unconventional": 6119,
      "unusual": 6120,
      "superi": 6121,
      "iments": 6122,
      "imply": 6123,
      "impair": 6124,
      "logical": 6125,
      "losis": 6126,
      "versy": 6127,
      "versus": 6128,
      "prop": 6129,
      "prolong": 6130,
      "aming": 6131,
      "usal": 6132,
      "ussels": 6133,
      "petr": 6134,
      "peers": 6135,
      "illes": 6136,
      "nel": 6137,
      "web": 6138,
      "ullah": 6139,
      "appointed": 6140,
      "exists": 6141,
      "explan": 6142,
      "express": 6143,
      "ested": 6144,
      "emen": 6145,
      "emic": 6146,
      "emission": 6147,
      "liu": 6148,
      "worry": 6149,
      "heed": 6150,
      "hell": 6151,
      "herence": 6152,
      "richer": 6153,
      "soaring": 6154,
      "note": 6155,
      "counts": 6156,
      "geon": 6157,
      "iful": 6158,
      "shed": 6159,
      "maneu": 6160,
      "fet": 6161,
      "outbreak": 6162,
      "outdated": 6163,
      "pling": 6164,
      "redress": 6165,
      "perpetr": 6166,
      "prud": 6167,
      "pride": 6168,
      "clout": 6169,
      "clash": 6170,
      "portfol": 6171,
      "cope": 6172,
      "string": 6173,
      "stranger": 6174,
      "strife": 6175,
      "creativity": 6176,
      "fost": 6177,
      "balancing": 6178,
      "oda": 6179,
      "dispos": 6180,
      "displaced": 6181,
      "grants": 6182,
      "governed": 6183,
      "governing": 6184,
      "fine": 6185,
      "mart": 6186,
      "marks": 6187,
      "marry": 6188,
      "blamed": 6189,
      "interven": 6190,
      "intergovernmental": 6191,
      "prem": 6192,
      "curve": 6193,
      "globalized": 6194,
      "invari": 6195,
      "uphold": 6196,
      "upcoming": 6197,
      "upgrad": 6198,
      "politician": 6199,
      "box": 6200,
      "fried": 6201,
      "brussels": 6202,
      "whoever": 6203,
      "bercu": 6204,
      "aven": 6205,
      "ela": 6206,
      "elig": 6207,
      "elite": 6208,
      "chances": 6209,
      "suppose": 6210,
      "suppli": 6211,
      "wheat": 6212,
      "foresee": 6213,
      "syn": 6214,
      "warfare": 6215,
      "oldest": 6216,
      "italys": 6217,
      "dry": 6218,
      "drivers": 6219,
      "farms": 6220,
      "financially": 6221,
      "compass": 6222,
      "surface": 6223,
      "transnational": 6224,
      "transitional": 6225,
      "transmission": 6226,
      "factories": 6227,
      "conditional": 6228,
      "attitude": 6229,
      "requiring": 6230,
      "ponomics": 6231,
      "votes": 6232,
      "index": 6233,
      "sectarian": 6234,
      "socially": 6235,
      "carried": 6236,
      "cartels": 6237,
      "qualities": 6238,
      "jordan": 6239,
      "visits": 6240,
      "seemingly": 6241,
      "careful": 6242,
      "koreas": 6243,
      "childhood": 6244,
      "securities": 6245,
      "announce": 6246,
      "employs": 6247,
      "terrible": 6248,
      "operational": 6249,
      "shortages": 6250,
      "ranked": 6251,
      "topic": 6252,
      "sciences": 6253,
      "certainty": 6254,
      "famine": 6255,
      "famously": 6256,
      "officers": 6257,
      "midterm": 6258,
      "problematic": 6259,
      "consuming": 6260,
      "approaching": 6261,
      "caution": 6262,
      "roadmap": 6263,
      "accessibility": 6264,
      "match": 6265,
      "mature": 6266,
      "compete": 6267,
      "competing": 6268,
      "controversy": 6269,
      "traders": 6270,
      "creditors": 6271,
      "inside": 6272,
      "profitable": 6273,
      "mali": 6274,
      "malays": 6275,
      "fallout": 6276,
      "appealing": 6277,
      "aircraft": 6278,
      "patient": 6279,
      "sheer": 6280,
      "denounced": 6281,
      "shareholders": 6282,
      "finds": 6283,
      "weakening": 6284,
      "negotiation": 6285,
      "charges": 6286,
      "headed": 6287,
      "showing": 6288,
      "integral": 6289,
      "integrating": 6290,
      "israelis": 6291,
      "rupture": 6292,
      "impunity": 6293,
      "facebook": 6294,
      "richest": 6295,
      "burg": 6296,
      "burmas": 6297,
      "smallholder": 6298,
      "dependency": 6299,
      "iranian": 6300,
      "experiences": 6301,
      "considerably": 6302,
      "contributes": 6303,
      "historian": 6304,
      "citizen": 6305,
      "fueling": 6306,
      "modernity": 6307,
      "modernization": 6308,
      "achievements": 6309,
      "agendas": 6310,
      "ruling": 6311,
      "check": 6312,
      "checked": 6313,
      "superpower": 6314,
      "totalitarian": 6315,
      "skilled": 6316,
      "suspect": 6317,
      "tempt": 6318,
      "deterior": 6319,
      "claiming": 6320,
      "turkeys": 6321,
      "safeguard": 6322,
      "101": 6323,
      "encourages": 6324,
      "experiment": 6325,
      "freedoms": 6326,
      "distant": 6327,
      "distance": 6328,
      "receiving": 6329,
      "constitute": 6330,
      "islamists": 6331,
      "adoption": 6332,
      "hamid": 6333,
      "enterprise": 6334,
      "hungary": 6335,
      "music": 6336,
      "scid": 6337,
      "confuc": 6338,
      "confident": 6339,
      "keso": 6340,
      "criminals": 6341,
      "collection": 6342,
      "ethiopias": 6343,
      "participants": 6344,
      "stimulate": 6345,
      "narco": 6346,
      "rainfall": 6347,
      "lifted": 6348,
      "popularity": 6349,
      "universitys": 6350,
      "activism": 6351,
      "indicating": 6352,
      "passing": 6353,
      "pursued": 6354,
      "fundamentalists": 6355,
      "geneva": 6356,
      "mandela": 6357,
      "explains": 6358,
      "complexity": 6359,
      "algerians": 6360,
      "1977": 6361,
      "relied": 6362,
      "medicare": 6363,
      "medicine": 6364,
      "ambassad": 6365,
      "counterproductive": 6366,
      "destined": 6367,
      "resolved": 6368,
      "socioeconomic": 6369,
      "divisions": 6370,
      "divoire": 6371,
      "assumes": 6372,
      "kenyan": 6373,
      "listening": 6374,
      "advantages": 6375,
      "belt": 6376,
      "demonstrating": 6377,
      "mistakes": 6378,
      "protectionism": 6379,
      "mexican": 6380,
      "engineer": 6381,
      "pledge": 6382,
      "disputed": 6383,
      "fragment": 6384,
      "accelerating": 6385,
      "exceptional": 6386,
      "presented": 6387,
      "parliamentary": 6388,
      "machinery": 6389,
      "complaints": 6390,
      "magn": 6391,
      "inspiring": 6392,
      "acquire": 6393,
      "aviation": 6394,
      "packages": 6395,
      "entrepreneurship": 6396,
      "accurately": 6397,
      "literally": 6398,
      "daunting": 6399,
      "painful": 6400,
      "smooth": 6401,
      "reveal": 6402,
      "aggressively": 6403,
      "melting": 6404,
      "strike": 6405,
      "settlements": 6406,
      "millennial": 6407,
      "algorithmic": 6408,
      "dedicated": 6409,
      "enhancing": 6410,
      "computers": 6411,
      "persuaded": 6412,
      "fathers": 6413,
      "sensitive": 6414,
      "harmful": 6415,
      "assured": 6416,
      "occupied": 6417,
      "virtue": 6418,
      "breaks": 6419,
      "guarantees": 6420,
      "customary": 6421,
      "neighborhood": 6422,
      "arrived": 6423,
      "koizumis": 6424,
      "bureaucracy": 6425,
      "homes": 6426,
      "rejection": 6427,
      "restored": 6428,
      "steady": 6429,
      "keynesian": 6430,
      "kyoto": 6431,
      "witnessed": 6432,
      "arrested": 6433,
      "condemned": 6434,
      "consolidate": 6435,
      "complicated": 6436,
      "quantitative": 6437,
      "ologist": 6438,
      "performing": 6439,
      "dozen": 6440,
      "dozens": 6441,
      "refugee": 6442,
      "refugees": 6443,
      "absentee": 6444,
      "instruments": 6445,
      "accommodation": 6446,
      "cherkeso": 6447,
      "evolve": 6448,
      "patriarch": 6449,
      "blocking": 6450,
      "analysts": 6451,
      "murdochs": 6452,
      "overwhelmingly": 6453,
      "obligations": 6454,
      "tubercu": 6455,
      "concentration": 6456,
      "princeton": 6457,
      "cyclical": 6458,
      "daughter": 6459,
      "sadly": 6460,
      "reykjavi": 6461,
      "erupted": 6462,
      "suddenly": 6463,
      "utterly": 6464,
      "methods": 6465,
      "disappointing": 6466,
      "granted": 6467,
      "desperately": 6468,
      "subsequently": 6469,
      "expenditure": 6470,
      "scheme": 6471,
      "acknowledged": 6472,
      "couple": 6473,
      "racial": 6474,
      "wisdom": 6475,
      "forthcoming": 6476,
      "shadow": 6477,
      "flawed": 6478,
      "summers": 6479,
      "tunisia": 6480,
      "insurgents": 6481,
      "retirement": 6482,
      "meltdown": 6483,
      "traffickers": 6484,
      "clients": 6485,
      "simultaneously": 6486,
      "reconciliation": 6487,
      "bailout": 6488,
      "wangari": 6489,
      "alleged": 6490,
      "chicago": 6491,
      "trumponomics": 6492,
      "monetization": 6493,
      "occasion": 6494,
      "criteria": 6495,
      "fighters": 6496,
      "ocean": 6497,
      "repud": 6498,
      "perceived": 6499,
      "multinational": 6500,
      "horizon": 6501,
      "satisf": 6502,
      "berlusconi": 6503,
      "dilem": 6504,
      "picture": 6505,
      "iceland": 6506,
      "tragedy": 6507,
      "moscow": 6508,
      "metrics": 6509,
      "hollande": 6510,
      "côte": 6511,
      "einstein": 6512,
      "kremlin": 6513,
      "mckinsey": 6514,
      "remorse": 6515,
      "dementia": 6516,
      "deemed": 6517,
      "devices": 6518,
      "trivial": 6519,
      "superior": 6520,
      "invariably": 6521,
      "suppliers": 6522,
      "tuberculosis": 6523,
      "reykjavik": 6524,
      "170": 6525,
      "22": 6526,
      "250": 6527,
      "31": 6528,
      "44": 6529,
      "55": 6530,
      "63": 6531,
      "68": 6532,
      "600": 6533,
      "aur": 6534,
      "aques": 6535,
      "bp": 6536,
      "bow": 6537,
      "bast": 6538,
      "bought": 6539,
      "dwell": 6540,
      "daw": 6541,
      "ean": 6542,
      "echo": 6543,
      "fant": 6544,
      "fade": 6545,
      "fish": 6546,
      "fold": 6547,
      "fought": 6548,
      "fier": 6549,
      "gand": 6550,
      "gence": 6551,
      "gian": 6552,
      "gically": 6553,
      "hen": 6554,
      "hall": 6555,
      "iro": 6556,
      "iver": 6557,
      "iable": 6558,
      "iary": 6559,
      "ique": 6560,
      "jer": 6561,
      "kil": 6562,
      "kag": 6563,
      "lor": 6564,
      "lest": 6565,
      "laid": 6566,
      "leng": 6567,
      "mare": 6568,
      "maf": 6569,
      "nas": 6570,
      "nom": 6571,
      "ore": 6572,
      "pc": 6573,
      "pic": 6574,
      "pill": 6575,
      "pid": 6576,
      "pure": 6577,
      "pick": 6578,
      "plif": 6579,
      "pharm": 6580,
      "rust": 6581,
      "rally": 6582,
      "rann": 6583,
      "route": 6584,
      "rift": 6585,
      "sla": 6586,
      "sending": 6587,
      "slack": 6588,
      "sky": 6589,
      "sale": 6590,
      "smug": 6591,
      "tie": 6592,
      "tide": 6593,
      "tled": 6594,
      "tpp": 6595,
      "ume": 6596,
      "uset": 6597,
      "vin": 6598,
      "vat": 6599,
      "vague": 6600,
      "wen": 6601,
      "wwi": 6602,
      "winter": 6603,
      "wins": 6604,
      "wrote": 6605,
      "za": 6606,
      "zo": 6607,
      "thom": 6608,
      "ini": 6609,
      "incur": 6610,
      "insol": 6611,
      "inject": 6612,
      "inward": 6613,
      "inaug": 6614,
      "anemic": 6615,
      "reci": 6616,
      "remem": 6617,
      "replic": 6618,
      "returning": 6619,
      "rebound": 6620,
      "recip": 6621,
      "theo": 6622,
      "thesis": 6623,
      "onset": 6624,
      "err": 6625,
      "ert": 6626,
      "erod": 6627,
      "atism": 6628,
      "atories": 6629,
      "enp": 6630,
      "enance": 6631,
      "enlarge": 6632,
      "enthus": 6633,
      "alas": 6634,
      "alex": 6635,
      "alep": 6636,
      "alias": 6637,
      "altogether": 6638,
      "itary": 6639,
      "icon": 6640,
      "icting": 6641,
      "ander": 6642,
      "arre": 6643,
      "asking": 6644,
      "stan": 6645,
      "stages": 6646,
      "stories": 6647,
      "staun": 6648,
      "rooted": 6649,
      "entered": 6650,
      "leak": 6651,
      "omer": 6652,
      "dev": 6653,
      "default": 6654,
      "iles": 6655,
      "illo": 6656,
      "seum": 6657,
      "secut": 6658,
      "vet": 6659,
      "acon": 6660,
      "bever": 6661,
      "bearing": 6662,
      "fornia": 6663,
      "convers": 6664,
      "convic": 6665,
      "trac": 6666,
      "oles": 6667,
      "unrest": 6668,
      "unfair": 6669,
      "unification": 6670,
      "thats": 6671,
      "suit": 6672,
      "sume": 6673,
      "imated": 6674,
      "impa": 6675,
      "impression": 6676,
      "immigrant": 6677,
      "imilation": 6678,
      "love": 6679,
      "whites": 6680,
      "ading": 6681,
      "adminis": 6682,
      "admit": 6683,
      "admission": 6684,
      "admissions": 6685,
      "verge": 6686,
      "uted": 6687,
      "nov": 6688,
      "motion": 6689,
      "proced": 6690,
      "protract": 6691,
      "amid": 6692,
      "ample": 6693,
      "ctare": 6694,
      "cel": 6695,
      "abid": 6696,
      "usively": 6697,
      "ouncing": 6698,
      "comparis": 6699,
      "irish": 6700,
      "agon": 6701,
      "agents": 6702,
      "iday": 6703,
      "wife": 6704,
      "withstand": 6705,
      "mail": 6706,
      "maur": 6707,
      "maist": 6708,
      "exc": 6709,
      "essay": 6710,
      "embod": 6711,
      "emulate": 6712,
      "height": 6713,
      "hectare": 6714,
      "richard": 6715,
      "noted": 6716,
      "notice": 6717,
      "overha": 6718,
      "haz": 6719,
      "hail": 6720,
      "ifies": 6721,
      "shin": 6722,
      "ighter": 6723,
      "telling": 6724,
      "mans": 6725,
      "ferent": 6726,
      "feared": 6727,
      "frozen": 6728,
      "answers": 6729,
      "plate": 6730,
      "plural": 6731,
      "plaus": 6732,
      "plaques": 6733,
      "istence": 6734,
      "istics": 6735,
      "crum": 6736,
      "crative": 6737,
      "peru": 6738,
      "perv": 6739,
      "indif": 6740,
      "indirect": 6741,
      "eurobonds": 6742,
      "stra": 6743,
      "strang": 6744,
      "asty": 6745,
      "eval": 6746,
      "evil": 6747,
      "evolution": 6748,
      "newly": 6749,
      "distr": 6750,
      "disman": 6751,
      "disability": 6752,
      "discovered": 6753,
      "grave": 6754,
      "ause": 6755,
      "grows": 6756,
      "uction": 6757,
      "uctive": 6758,
      "finite": 6759,
      "communit": 6760,
      "doha": 6761,
      "goog": 6762,
      "lowest": 6763,
      "cessions": 6764,
      "blue": 6765,
      "blair": 6766,
      "interview": 6767,
      "premature": 6768,
      "curb": 6769,
      "achuset": 6770,
      "formula": 6771,
      "boy": 6772,
      "bots": 6773,
      "fraction": 6774,
      "fraud": 6775,
      "brib": 6776,
      "inequalities": 6777,
      "obsess": 6778,
      "ideology": 6779,
      "investor": 6780,
      "investig": 6781,
      "spin": 6782,
      "spon": 6783,
      "spillo": 6784,
      "unite": 6785,
      "supplement": 6786,
      "types": 6787,
      "tyrann": 6788,
      "forecas": 6789,
      "underground": 6790,
      "highlights": 6791,
      "warning": 6792,
      "province": 6793,
      "caps": 6794,
      "capt": 6795,
      "restaur": 6796,
      "rises": 6797,
      "internationally": 6798,
      "internationalism": 6799,
      "marketing": 6800,
      "corn": 6801,
      "corner": 6802,
      "driver": 6803,
      "assa": 6804,
      "assimilation": 6805,
      "iously": 6806,
      "mayor": 6807,
      "maynard": 6808,
      "turbul": 6809,
      "deciding": 6810,
      "museum": 6811,
      "crisy": 6812,
      "compli": 6813,
      "surround": 6814,
      "healthcare": 6815,
      "reluct": 6816,
      "epic": 6817,
      "eping": 6818,
      "desired": 6819,
      "solving": 6820,
      "solved": 6821,
      "generals": 6822,
      "instinct": 6823,
      "gues": 6824,
      "guess": 6825,
      "guided": 6826,
      "subtle": 6827,
      "simplif": 6828,
      "realizing": 6829,
      "pull": 6830,
      "color": 6831,
      "colom": 6832,
      "bankrupt": 6833,
      "herself": 6834,
      "backdrop": 6835,
      "youngest": 6836,
      "loyal": 6837,
      "turnout": 6838,
      "carter": 6839,
      "carrying": 6840,
      "qualitative": 6841,
      "triump": 6842,
      "signal": 6843,
      "visas": 6844,
      "harness": 6845,
      "pathetic": 6846,
      "careers": 6847,
      "carefully": 6848,
      "securing": 6849,
      "searching": 6850,
      "benefited": 6851,
      "operators": 6852,
      "seeing": 6853,
      "privacy": 6854,
      "monitor": 6855,
      "ranking": 6856,
      "ranks": 6857,
      "sincere": 6858,
      "revival": 6859,
      "rio": 6860,
      "offices": 6861,
      "midst": 6862,
      "directed": 6863,
      "refusing": 6864,
      "matism": 6865,
      "facility": 6866,
      "controvers": 6867,
      "challenging": 6868,
      "suffers": 6869,
      "halt": 6870,
      "oked": 6871,
      "phrase": 6872,
      "equili": 6873,
      "expects": 6874,
      "1992": 6875,
      "1995": 6876,
      "naturally": 6877,
      "writing": 6878,
      "saved": 6879,
      "recognizes": 6880,
      "protected": 6881,
      "protecting": 6882,
      "protections": 6883,
      "weaken": 6884,
      "negotiators": 6885,
      "lifelong": 6886,
      "ethics": 6887,
      "happiness": 6888,
      "arguably": 6889,
      "cited": 6890,
      "burdens": 6891,
      "morally": 6892,
      "elev": 6893,
      "positioned": 6894,
      "ecks": 6895,
      "questionable": 6896,
      "communism": 6897,
      "continental": 6898,
      "handed": 6899,
      "handful": 6900,
      "tony": 6901,
      "slowing": 6902,
      "contraction": 6903,
      "orders": 6904,
      "contributing": 6905,
      "merchand": 6906,
      "massachuset": 6907,
      "rational": 6908,
      "wealthiest": 6909,
      "maintenance": 6910,
      "administrations": 6911,
      "supervis": 6912,
      "speculation": 6913,
      "secretar": 6914,
      "prevented": 6915,
      "classroom": 6916,
      "osama": 6917,
      "incite": 6918,
      "representing": 6919,
      "shifts": 6920,
      "shifted": 6921,
      "distort": 6922,
      "tested": 6923,
      "constitu": 6924,
      "periods": 6925,
      "situations": 6926,
      "acceptance": 6927,
      "favored": 6928,
      "dangerously": 6929,
      "mediate": 6930,
      "subsistence": 6931,
      "affects": 6932,
      "ethiopian": 6933,
      "bollywood": 6934,
      "respected": 6935,
      "respective": 6936,
      "existence": 6937,
      "lifes": 6938,
      "predictability": 6939,
      "connection": 6940,
      "indicates": 6941,
      "professors": 6942,
      "cleanup": 6943,
      "passage": 6944,
      "varieties": 6945,
      "volume": 6946,
      "conducted": 6947,
      "substance": 6948,
      "achievable": 6949,
      "outsiders": 6950,
      "excluded": 6951,
      "sooner": 6952,
      "athy": 6953,
      "bills": 6954,
      "winner": 6955,
      "motor": 6956,
      "exporting": 6957,
      "catch": 6958,
      "obviously": 6959,
      "morality": 6960,
      "destabil": 6961,
      "destiny": 6962,
      "glomer": 6963,
      "attractive": 6964,
      "assuming": 6965,
      "russians": 6966,
      "ratify": 6967,
      "ratios": 6968,
      "reinforcing": 6969,
      "troubles": 6970,
      "urgency": 6971,
      "struggling": 6972,
      "avoided": 6973,
      "protectionist": 6974,
      "watching": 6975,
      "councils": 6976,
      "printing": 6977,
      "purchasing": 6978,
      "accelerated": 6979,
      "cupr": 6980,
      "judged": 6981,
      "allied": 6982,
      "machines": 6983,
      "alien": 6984,
      "acquired": 6985,
      "advocate": 6986,
      "advocating": 6987,
      "describe": 6988,
      "accuracy": 6989,
      "literary": 6990,
      "guns": 6991,
      "stagger": 6992,
      "conclude": 6993,
      "supposedly": 6994,
      "collapsed": 6995,
      "dropped": 6996,
      "lucrative": 6997,
      "sensible": 6998,
      "confrontation": 6999,
      "celebration": 7000,
      "minimize": 7001,
      "prevailing": 7002,
      "villages": 7003,
      "replacement": 7004,
      "occupation": 7005,
      "equipped": 7006,
      "doctor": 7007,
      "mountain": 7008,
      "miracle": 7009,
      "teams": 7010,
      "principal": 7011,
      "frustrated": 7012,
      "narratives": 7013,
      "tougher": 7014,
      "deploying": 7015,
      "skeptics": 7016,
      "implicit": 7017,
      "optimism": 7018,
      "autocr": 7019,
      "obstacle": 7020,
      "bureaucratic": 7021,
      "executive": 7022,
      "drove": 7023,
      "reversing": 7024,
      "stalled": 7025,
      "acknowledge": 7026,
      "eliminate": 7027,
      "flags": 7028,
      "perspectives": 7029,
      "volatile": 7030,
      "marginalized": 7031,
      "fronts": 7032,
      "revolt": 7033,
      "witnessing": 7034,
      "stakeholders": 7035,
      "deadly": 7036,
      "consolidation": 7037,
      "navalnys": 7038,
      "punish": 7039,
      "allocate": 7040,
      "allocated": 7041,
      "logging": 7042,
      "hegemon": 7043,
      "combatants": 7044,
      "genuinely": 7045,
      "anticipation": 7046,
      "comfort": 7047,
      "gravity": 7048,
      "heroin": 7049,
      "crowley": 7050,
      "golden": 7051,
      "nazis": 7052,
      "recruit": 7053,
      "conceiv": 7054,
      "balkans": 7055,
      "heritage": 7056,
      "declarations": 7057,
      "functioning": 7058,
      "duty": 7059,
      "daughters": 7060,
      "jailed": 7061,
      "phase": 7062,
      "town": 7063,
      "towns": 7064,
      "subsequent": 7065,
      "normally": 7066,
      "expenditures": 7067,
      "earnings": 7068,
      "schemes": 7069,
      "hypocrisy": 7070,
      "voluntary": 7071,
      "girlfriend": 7072,
      "sacrifice": 7073,
      "pilot": 7074,
      "rudd": 7075,
      "anxiety": 7076,
      "abundant": 7077,
      "poisoned": 7078,
      "continuing": 7079,
      "backgrounds": 7080,
      "meritocr": 7081,
      "predicted": 7082,
      "bouteflika": 7083,
      "bouteflikas": 7084,
      "icao": 7085,
      "aspects": 7086,
      "church": 7087,
      "advertising": 7088,
      "comparative": 7089,
      "kennedy": 7090,
      "excluding": 7091,
      "czech": 7092,
      "paper": 7093,
      "rums": 7094,
      "escalating": 7095,
      "vehicles": 7096,
      "illustrates": 7097,
      "appreciate": 7098,
      "prescription": 7099,
      "preparation": 7100,
      "brightest": 7101,
      "compounded": 7102,
      "georgia": 7103,
      "pipeline": 7104,
      "jihadism": 7105,
      "eradication": 7106,
      "dignity": 7107,
      "hatred": 7108,
      "nightmare": 7109,
      "prompt": 7110,
      "manifest": 7111,
      "perpetu": 7112,
      "underestimated": 7113,
      "categories": 7114,
      "tocqueville": 7115,
      "periphery": 7116,
      "lagos": 7117,
      "shelter": 7118,
      "threshold": 7119,
      "injuries": 7120,
      "intractable": 7121,
      "ensuing": 7122,
      "icultural": 7123,
      "losers": 7124,
      "illnesses": 7125,
      "appointees": 7126,
      "plumme": 7127,
      "syrias": 7128,
      "provinces": 7129,
      "california": 7130,
      "paradigm": 7131,
      "ophobia": 7132,
      "smokestacks": 7133,
      "ingredients": 7134,
      "impairment": 7135,
      "explanation": 7136,
      "maneuver": 7137,
      "perpetrators": 7138,
      "intervene": 7139,
      "upgrading": 7140,
      "announcement": 7141,
      "malaysia": 7142,
      "confucian": 7143,
      "fragmentation": 7144,
      "fierce": 7145,
      "remembered": 7146,
      "aleppo": 7147,
      "beverages": 7148,
      "impaired": 7149,
      "administered": 7150,
      "protracted": 7151,
      "comparison": 7152,
      "overhaul": 7153,
      "equilibr": 7154,
      "merchandise": 7155,
      "massachusetts": 7156,
      "150": 7157,
      "37": 7158,
      "38": 7159,
      "41": 7160,
      "42": 7161,
      "43": 7162,
      "47": 7163,
      "73": 7164,
      "88": 7165,
      "93": 7166,
      "95": 7167,
      "ax": 7168,
      "bat": 7169,
      "bun": 7170,
      "bons": 7171,
      "cure": 7172,
      "cade": 7173,
      "drew": 7174,
      "epo": 7175,
      "eigh": 7176,
      "ebol": 7177,
      "ff": 7178,
      "gro": 7179,
      "gif": 7180,
      "gau": 7181,
      "gross": 7182,
      "gling": 7183,
      "gaw": 7184,
      "hod": 7185,
      "hide": 7186,
      "ius": 7187,
      "ience": 7188,
      "jar": 7189,
      "jose": 7190,
      "kor": 7191,
      "kig": 7192,
      "kur": 7193,
      "kid": 7194,
      "kler": 7195,
      "lic": 7196,
      "lum": 7197,
      "lance": 7198,
      "lash": 7199,
      "mc": 7200,
      "mich": 7201,
      "mics": 7202,
      "mik": 7203,
      "mchen": 7204,
      "nit": 7205,
      "nad": 7206,
      "naf": 7207,
      "nest": 7208,
      "nye": 7209,
      "native": 7210,
      "nomin": 7211,
      "nasty": 7212,
      "ois": 7213,
      "ost": 7214,
      "ode": 7215,
      "ogy": 7216,
      "pit": 7217,
      "pand": 7218,
      "pts": 7219,
      "pav": 7220,
      "pound": 7221,
      "pund": 7222,
      "pher": 7223,
      "pump": 7224,
      "pleads": 7225,
      "qat": 7226,
      "rass": 7227,
      "rays": 7228,
      "sab": 7229,
      "swi": 7230,
      "ske": 7231,
      "snow": 7232,
      "sdgs": 7233,
      "tig": 7234,
      "twe": 7235,
      "tress": 7236,
      "temp": 7237,
      "tort": 7238,
      "trop": 7239,
      "tabo": 7240,
      "utop": 7241,
      "vested": 7242,
      "wary": 7243,
      "xon": 7244,
      "ylo": 7245,
      "yemen": 7246,
      "zh": 7247,
      "zed": 7248,
      "input": 7249,
      "insul": 7250,
      "anmar": 7251,
      "angry": 7252,
      "resum": 7253,
      "remed": 7254,
      "retali": 7255,
      "repair": 7256,
      "theme": 7257,
      "theast": 7258,
      "atts": 7259,
      "encing": 7260,
      "enrich": 7261,
      "encompass": 7262,
      "albe": 7263,
      "escap": 7264,
      "esburg": 7265,
      "iss": 7266,
      "isnt": 7267,
      "itate": 7268,
      "toll": 7269,
      "tobac": 7270,
      "icit": 7271,
      "icipal": 7272,
      "edge": 7273,
      "aris": 7274,
      "arsen": 7275,
      "aso": 7276,
      "assur": 7277,
      "stun": 7278,
      "stad": 7279,
      "stig": 7280,
      "roles": 7281,
      "robots": 7282,
      "entren": 7283,
      "entang": 7284,
      "entry": 7285,
      "leap": 7286,
      "devis": 7287,
      "degre": 7288,
      "detect": 7289,
      "devote": 7290,
      "depreci": 7291,
      "semin": 7292,
      "segments": 7293,
      "veget": 7294,
      "beaut": 7295,
      "betray": 7296,
      "forging": 7297,
      "forgotten": 7298,
      "chant": 7299,
      "chau": 7300,
      "chose": 7301,
      "tral": 7302,
      "truc": 7303,
      "unexpected": 7304,
      "imid": 7305,
      "importers": 7306,
      "utical": 7307,
      "nowhere": 7308,
      "prox": 7309,
      "proof": 7310,
      "propose": 7311,
      "amylo": 7312,
      "ceiling": 7313,
      "abul": 7314,
      "abound": 7315,
      "abra": 7316,
      "peak": 7317,
      "illicit": 7318,
      "comment": 7319,
      "comers": 7320,
      "irony": 7321,
      "nebr": 7322,
      "agri": 7323,
      "urable": 7324,
      "pope": 7325,
      "poised": 7326,
      "powered": 7327,
      "tsight": 7328,
      "apathy": 7329,
      "keen": 7330,
      "exemp": 7331,
      "extract": 7332,
      "exchanges": 7333,
      "expression": 7334,
      "eman": 7335,
      "emir": 7336,
      "embed": 7337,
      "lift": 7338,
      "likes": 7339,
      "worries": 7340,
      "rice": 7341,
      "sored": 7342,
      "notable": 7343,
      "notorious": 7344,
      "counting": 7345,
      "gered": 7346,
      "opted": 7347,
      "overs": 7348,
      "overhang": 7349,
      "overseas": 7350,
      "overlooked": 7351,
      "haw": 7352,
      "aying": 7353,
      "porter": 7354,
      "tel": 7355,
      "teed": 7356,
      "tepid": 7357,
      "manager": 7358,
      "quot": 7359,
      "fees": 7360,
      "feas": 7361,
      "redirect": 7362,
      "istically": 7363,
      "endors": 7364,
      "crib": 7365,
      "crash": 7366,
      "peril": 7367,
      "yel": 7368,
      "yell": 7369,
      "pron": 7370,
      "prague": 7371,
      "prais": 7372,
      "parity": 7373,
      "cles": 7374,
      "ght": 7375,
      "coinc": 7376,
      "meals": 7377,
      "euros": 7378,
      "wasted": 7379,
      "strides": 7380,
      "evident": 7381,
      "foster": 7382,
      "newcomers": 7383,
      "odd": 7384,
      "presents": 7385,
      "discre": 7386,
      "display": 7387,
      "discontent": 7388,
      "discourage": 7389,
      "discredited": 7390,
      "gras": 7391,
      "grain": 7392,
      "griev": 7393,
      "governors": 7394,
      "fink": 7395,
      "command": 7396,
      "marbles": 7397,
      "pregn": 7398,
      "prejud": 7399,
      "precip": 7400,
      "preferences": 7401,
      "invigor": 7402,
      "bang": 7403,
      "formed": 7404,
      "formally": 7405,
      "contest": 7406,
      "ups": 7407,
      "upper": 7408,
      "upheav": 7409,
      "updating": 7410,
      "framing": 7411,
      "regis": 7412,
      "regious": 7413,
      "bride": 7414,
      "brave": 7415,
      "brief": 7416,
      "brink": 7417,
      "bern": 7418,
      "inea": 7419,
      "observ": 7420,
      "ideolo": 7421,
      "serbian": 7422,
      "itioners": 7423,
      "spains": 7424,
      "forever": 7425,
      "forefront": 7426,
      "intimid": 7427,
      "undertake": 7428,
      "aceutical": 7429,
      "warri": 7430,
      "ptions": 7431,
      "twist": 7432,
      "restoring": 7433,
      "longstanding": 7434,
      "whats": 7435,
      "drc": 7436,
      "drain": 7437,
      "anytime": 7438,
      "caught": 7439,
      "calip": 7440,
      "stemming": 7441,
      "whereby": 7442,
      "cyn": 7443,
      "factory": 7444,
      "ifications": 7445,
      "debated": 7446,
      "england": 7447,
      "missil": 7448,
      "greatness": 7449,
      "tenure": 7450,
      "guinea": 7451,
      "medved": 7452,
      "differ": 7453,
      "dified": 7454,
      "hub": 7455,
      "courses": 7456,
      "realism": 7457,
      "realities": 7458,
      "void": 7459,
      "consent": 7460,
      "reading": 7461,
      "demograph": 7462,
      "valid": 7463,
      "statements": 7464,
      "statehood": 7465,
      "educate": 7466,
      "iction": 7467,
      "rush": 7468,
      "turnaround": 7469,
      "carries": 7470,
      "carbons": 7471,
      "tribal": 7472,
      "tripled": 7473,
      "benign": 7474,
      "visa": 7475,
      "myri": 7476,
      "myanmar": 7477,
      "extending": 7478,
      "extensive": 7479,
      "reformed": 7480,
      "reforming": 7481,
      "ugandas": 7482,
      "annan": 7483,
      "annesburg": 7484,
      "ghanas": 7485,
      "artists": 7486,
      "offensive": 7487,
      "lined": 7488,
      "lincol": 7489,
      "issuing": 7490,
      "universe": 7491,
      "pays": 7492,
      "reassure": 7493,
      "committees": 7494,
      "humans": 7495,
      "borne": 7496,
      "rank": 7497,
      "planes": 7498,
      "famili": 7499,
      "agreeing": 7500,
      "potent": 7501,
      "potato": 7502,
      "societal": 7503,
      "caut": 7504,
      "cloone": 7505,
      "bio": 7506,
      "matur": 7507,
      "declaring": 7508,
      "tradable": 7509,
      "traditions": 7510,
      "inflict": 7511,
      "farmland": 7512,
      "bretton": 7513,
      "player": 7514,
      "profile": 7515,
      "bonuses": 7516,
      "regularly": 7517,
      "barbar": 7518,
      "barring": 7519,
      "accords": 7520,
      "accordance": 7521,
      "purposes": 7522,
      "phones": 7523,
      "falls": 7524,
      "appearing": 7525,
      "killings": 7526,
      "wests": 7527,
      "thinks": 7528,
      "airlines": 7529,
      "patron": 7530,
      "shell": 7531,
      "1993": 7532,
      "1997": 7533,
      "1998": 7534,
      "traw": 7535,
      "denying": 7536,
      "hardship": 7537,
      "westerners": 7538,
      "charity": 7539,
      "lifetime": 7540,
      "integrity": 7541,
      "homeland": 7542,
      "moderately": 7543,
      "implied": 7544,
      "complement": 7545,
      "completed": 7546,
      "burgeon": 7547,
      "schooling": 7548,
      "dangers": 7549,
      "engel": 7550,
      "considering": 7551,
      "considerations": 7552,
      "fuk": 7553,
      "communists": 7554,
      "cleare": 7555,
      "handle": 7556,
      "slower": 7557,
      "ministry": 7558,
      "ministries": 7559,
      "strengths": 7560,
      "awa": 7561,
      "openness": 7562,
      "earned": 7563,
      "earths": 7564,
      "britains": 7565,
      "understands": 7566,
      "liberalizing": 7567,
      "avert": 7568,
      "reflection": 7569,
      "civilian": 7570,
      "combust": 7571,
      "combine": 7572,
      "manufactured": 7573,
      "hopeless": 7574,
      "fairness": 7575,
      "scientist": 7576,
      "cultures": 7577,
      "nigerian": 7578,
      "defenses": 7579,
      "personnel": 7580,
      "practitioners": 7581,
      "names": 7582,
      "doubled": 7583,
      "deepening": 7584,
      "iraqs": 7585,
      "transforming": 7586,
      "transformations": 7587,
      "breakup": 7588,
      "electrons": 7589,
      "testing": 7590,
      "accident": 7591,
      "constitutes": 7592,
      "inflationary": 7593,
      "1987": 7594,
      "hamilt": 7595,
      "consequential": 7596,
      "damaged": 7597,
      "oxford": 7598,
      "confused": 7599,
      "mediation": 7600,
      "diagnostic": 7601,
      "environmentally": 7602,
      "munde": 7603,
      "municipal": 7604,
      "participating": 7605,
      "blocked": 7606,
      "rainforest": 7607,
      "weapon": 7608,
      "existent": 7609,
      "borrowed": 7610,
      "predictions": 7611,
      "connections": 7612,
      "connectivity": 7613,
      "hyper": 7614,
      "activate": 7615,
      "indicator": 7616,
      "influenced": 7617,
      "vulnerabilities": 7618,
      "vari": 7619,
      "introduction": 7620,
      "conducting": 7621,
      "drawing": 7622,
      "genet": 7623,
      "hikes": 7624,
      "mandatory": 7625,
      "relying": 7626,
      "organizational": 7627,
      "specialists": 7628,
      "outsize": 7629,
      "exclusively": 7630,
      "1970": 7631,
      "1979": 7632,
      "commodities": 7633,
      "collusion": 7634,
      "winning": 7635,
      "feels": 7636,
      "feeling": 7637,
      "medication": 7638,
      "medications": 7639,
      "subsidized": 7640,
      "alongside": 7641,
      "destro": 7642,
      "resolutions": 7643,
      "discussions": 7644,
      "gordon": 7645,
      "gorbac": 7646,
      "silk": 7647,
      "retro": 7648,
      "retical": 7649,
      "renewal": 7650,
      "renewables": 7651,
      "kenyas": 7652,
      "dynamism": 7653,
      "rwandas": 7654,
      "ratification": 7655,
      "responded": 7656,
      "stered": 7657,
      "steel": 7658,
      "steward": 7659,
      "depending": 7660,
      "imperfect": 7661,
      "imperatives": 7662,
      "legitimize": 7663,
      "audiences": 7664,
      "diversification": 7665,
      "diversified": 7666,
      "johannesburg": 7667,
      "originally": 7668,
      "mistak": 7669,
      "maternal": 7670,
      "yielding": 7671,
      "avoidance": 7672,
      "mexicos": 7673,
      "murder": 7674,
      "navigate": 7675,
      "troop": 7676,
      "boards": 7677,
      "cuba": 7678,
      "kosovos": 7679,
      "egyptian": 7680,
      "frequency": 7681,
      "spreading": 7682,
      "erosion": 7683,
      "association": 7684,
      "complained": 7685,
      "sympathetic": 7686,
      "restricting": 7687,
      "companys": 7688,
      "acquis": 7689,
      "dictators": 7690,
      "packaging": 7691,
      "surveys": 7692,
      "writers": 7693,
      "disciplines": 7694,
      "proposing": 7695,
      "undermines": 7696,
      "intelligent": 7697,
      "beliefs": 7698,
      "superconducting": 7699,
      "bulge": 7700,
      "enhanced": 7701,
      "mothers": 7702,
      "persuas": 7703,
      "persuade": 7704,
      "meantime": 7705,
      "augment": 7706,
      "intellectually": 7707,
      "profoundly": 7708,
      "egregious": 7709,
      "sensit": 7710,
      "celebrate": 7711,
      "celebrating": 7712,
      "minorities": 7713,
      "hosted": 7714,
      "rigid": 7715,
      "departments": 7716,
      "correctly": 7717,
      "linkages": 7718,
      "barrier": 7719,
      "darfur": 7720,
      "thousand": 7721,
      "clinic": 7722,
      "clinicians": 7723,
      "buyer": 7724,
      "tariff": 7725,
      "guaranteed": 7726,
      "hurric": 7727,
      "laden": 7728,
      "milan": 7729,
      "miles": 7730,
      "albanias": 7731,
      "physical": 7732,
      "physics": 7733,
      "deployed": 7734,
      "interventionism": 7735,
      "honest": 7736,
      "smarter": 7737,
      "tightly": 7738,
      "tightened": 7739,
      "window": 7740,
      "optimal": 7741,
      "permanently": 7742,
      "battlefield": 7743,
      "diets": 7744,
      "homophobia": 7745,
      "rejected": 7746,
      "stabilizing": 7747,
      "triggered": 7748,
      "hearts": 7749,
      "eliminated": 7750,
      "eliminating": 7751,
      "guidelines": 7752,
      "persistently": 7753,
      "marginalization": 7754,
      "cards": 7755,
      "reminder": 7756,
      "reminded": 7757,
      "planting": 7758,
      "markedly": 7759,
      "desert": 7760,
      "deserve": 7761,
      "feminist": 7762,
      "fertilizers": 7763,
      "tolerance": 7764,
      "detailed": 7765,
      "disrupt": 7766,
      "delayed": 7767,
      "philanth": 7768,
      "ethnicity": 7769,
      "adaptation": 7770,
      "keralas": 7771,
      "spectac": 7772,
      "angela": 7773,
      "rewarded": 7774,
      "intensity": 7775,
      "calculations": 7776,
      "electorate": 7777,
      "targeting": 7778,
      "hedge": 7779,
      "evolved": 7780,
      "automation": 7781,
      "containment": 7782,
      "attempted": 7783,
      "articulated": 7784,
      "obligation": 7785,
      "nazi": 7786,
      "recruits": 7787,
      "concentrate": 7788,
      "manipulation": 7789,
      "cycles": 7790,
      "apparent": 7791,
      "curricula": 7792,
      "dutch": 7793,
      "false": 7794,
      "square": 7795,
      "season": 7796,
      "disproportionate": 7797,
      "relentlessly": 7798,
      "customer": 7799,
      "acknowledging": 7800,
      "routinely": 7801,
      "abandoned": 7802,
      "gathering": 7803,
      "humiliation": 7804,
      "tactics": 7805,
      "decrease": 7806,
      "shoes": 7807,
      "channels": 7808,
      "mugabe": 7809,
      "summits": 7810,
      "harmony": 7811,
      "insurgency": 7812,
      "luxury": 7813,
      "enjoyed": 7814,
      "sorts": 7815,
      "recovering": 7816,
      "storage": 7817,
      "storms": 7818,
      "deliberate": 7819,
      "deliberately": 7820,
      "confronted": 7821,
      "application": 7822,
      "privilege": 7823,
      "privileged": 7824,
      "kennedys": 7825,
      "destroyed": 7826,
      "watershed": 7827,
      "abdullah": 7828,
      "crushing": 7829,
      "pragmatic": 7830,
      "inequity": 7831,
      "incumbent": 7832,
      "incumbents": 7833,
      "stagnant": 7834,
      "embraced": 7835,
      "embracing": 7836,
      "ecosystems": 7837,
      "pesticides": 7838,
      "armenia": 7839,
      "abbasid": 7840,
      "coastal": 7841,
      "disastr": 7842,
      "disparities": 7843,
      "marshall": 7844,
      "fruit": 7845,
      "substitute": 7846,
      "joblessness": 7847,
      "electronic": 7848,
      "penalties": 7849,
      "ceremony": 7850,
      "excellence": 7851,
      "mathematics": 7852,
      "explicitly": 7853,
      "diminish": 7854,
      "founder": 7855,
      "fascist": 7856,
      "hierarchy": 7857,
      "kundera": 7858,
      "tasks": 7859,
      "tweets": 7860,
      "accused": 7861,
      "constant": 7862,
      "looming": 7863,
      "abortion": 7864,
      "neutral": 7865,
      "shortsight": 7866,
      "quiet": 7867,
      "documented": 7868,
      "impede": 7869,
      "awakening": 7870,
      "merkel": 7871,
      "lifestyle": 7872,
      "redistribution": 7873,
      "ckets": 7874,
      "tamil": 7875,
      "restructuring": 7876,
      "enlightened": 7877,
      "degradation": 7878,
      "chaos": 7879,
      "confirmed": 7880,
      "prudent": 7881,
      "premium": 7882,
      "temptation": 7883,
      "ambassador": 7884,
      "patriarchal": 7885,
      "repudi": 7886,
      "dilemma": 7887,
      "bowl": 7888,
      "fantas": 7889,
      "giants": 7890,
      "kagame": 7891,
      "lords": 7892,
      "pcp": 7893,
      "pharmaceutical": 7894,
      "wwii": 7895,
      "thomas": 7896,
      "inaugural": 7897,
      "theoretical": 7898,
      "enlargement": 7899,
      "staunch": 7900,
      "hazard": 7901,
      "shinzo": 7902,
      "plausible": 7903,
      "pervasive": 7904,
      "indirectly": 7905,
      "straight": 7906,
      "strangers": 7907,
      "google": 7908,
      "sponsored": 7909,
      "spillover": 7910,
      "forecasts": 7911,
      "compliance": 7912,
      "distortions": 7913,
      "lifesaving": 7914,
      "cuprates": 7915,
      "staggering": 7916,
      "conceivable": 7917,
      "equilibrium": 7918,
      "epoch": 7919,
      "gifts": 7920,
      "kigali": 7921,
      "klerk": 7922,
      "mikhail": 7923,
      "nafta": 7924,
      "nyere": 7925,
      "qatar": 7926,
      "swift": 7927,
      "tempting": 7928,
      "tropical": 7929,
      "taboo": 7930,
      "albeit": 7931,
      "tobacco": 7932,
      "entrenched": 7933,
      "degrees": 7934,
      "amyloid": 7935,
      "nebrask": 7936,
      "endorsed": 7937,
      "warriors": 7938,
      "missiles": 7939,
      "medvedev": 7940,
      "myriad": 7941,
      "familiar": 7942,
      "burgeoning": 7943,
      "hamiltons": 7944,
      "gorbache": 7945,
      "philanthrop": 7946,
      "shortsighted": 7947,
      ",\"": 7948,
      ".\"": 7949,
      "05": 7950,
      "140": 7951,
      "125": 7952,
      "54": 7953,
      "59": 7954,
      "66": 7955,
      "76": 7956,
      "77": 7957,
      "800": 7958,
      "awi": 7959,
      "award": 7960,
      "athen": 7961,
      "bh": 7962,
      "bis": 7963,
      "bent": 7964,
      "bts": 7965,
      "bone": 7966,
      "bread": 7967,
      "bands": 7968,
      "bitter": 7969,
      "cable": 7970,
      "cater": 7971,
      "ccam": 7972,
      "dad": 7973,
      "deng": 7974,
      "dles": 7975,
      "dying": 7976,
      "dued": 7977,
      "etr": 7978,
      "fre": 7979,
      "fdi": 7980,
      "flying": 7981,
      "fishing": 7982,
      "gate": 7983,
      "gists": 7984,
      "games": 7985,
      "hin": 7986,
      "hion": 7987,
      "hem": 7988,
      "hack": 7989,
      "iu": 7990,
      "iar": 7991,
      "iam": 7992,
      "iaries": 7993,
      "iques": 7994,
      "jol": 7995,
      "jam": 7996,
      "jur": 7997,
      "jef": 7998,
      "jump": 7999,
      "kof": 8000,
      "knew": 8001,
      "kah": 8002,
      "kano": 8003,
      "khod": 8004,
      "kabul": 8005,
      "lr": 8006,
      "lv": 8007,
      "lou": 8008,
      "lul": 8009,
      "lers": 8010,
      "lens": 8011,
      "mi": 8012,
      "mong": 8013,
      "mary": 8014,
      "mud": 8015,
      "mons": 8016,
      "nut": 8017,
      "nich": 8018,
      "nish": 8019,
      "oist": 8020,
      "obo": 8021,
      "oreg": 8022,
      "pess": 8023,
      "pho": 8024,
      "phist": 8025,
      "pins": 8026,
      "penn": 8027,
      "plot": 8028,
      "rab": 8029,
      "rated": 8030,
      "rappro": 8031,
      "rys": 8032,
      "ramp": 8033,
      "rallies": 8034,
      "sam": 8035,
      "sest": 8036,
      "sport": 8037,
      "song": 8038,
      "site": 8039,
      "sri": 8040,
      "sick": 8041,
      "sque": 8042,
      "saud": 8043,
      "tb": 8044,
      "tus": 8045,
      "tex": 8046,
      "tip": 8047,
      "treal": 8048,
      "tling": 8049,
      "tapped": 8050,
      "tlen": 8051,
      "uated": 8052,
      "ugo": 8053,
      "ugu": 8054,
      "upris": 8055,
      "uously": 8056,
      "vy": 8057,
      "vak": 8058,
      "vina": 8059,
      "vowed": 8060,
      "wm": 8061,
      "wto": 8062,
      "wil": 8063,
      "ware": 8064,
      "yi": 8065,
      "yn": 8066,
      "yugo": 8067,
      "zi": 8068,
      "zz": 8069,
      "zer": 8070,
      "zam": 8071,
      "çois": 8072,
      "ε4": 8073,
      "thy": 8074,
      "intr": 8075,
      "inqu": 8076,
      "incre": 8077,
      "inary": 8078,
      "inations": 8079,
      "insure": 8080,
      "incoming": 8081,
      "inhabit": 8082,
      "anes": 8083,
      "anto": 8084,
      "refr": 8085,
      "resur": 8086,
      "revis": 8087,
      "recall": 8088,
      "remove": 8089,
      "retreat": 8090,
      "reconsider": 8091,
      "revision": 8092,
      "rebuilding": 8093,
      "rebel": 8094,
      "removing": 8095,
      "reconstruction": 8096,
      "reiter": 8097,
      "replacing": 8098,
      "recessions": 8099,
      "onia": 8100,
      "onishing": 8101,
      "erini": 8102,
      "enact": 8103,
      "enous": 8104,
      "enyi": 8105,
      "alq": 8106,
      "alan": 8107,
      "espion": 8108,
      "orko": 8109,
      "orship": 8110,
      "ordered": 8111,
      "isma": 8112,
      "isible": 8113,
      "item": 8114,
      "itant": 8115,
      "tocr": 8116,
      "toms": 8117,
      "icing": 8118,
      "icate": 8119,
      "icted": 8120,
      "edit": 8121,
      "edged": 8122,
      "andrew": 8123,
      "arde": 8124,
      "arise": 8125,
      "arrog": 8126,
      "asan": 8127,
      "asts": 8128,
      "stu": 8129,
      "stars": 8130,
      "stuck": 8131,
      "leaks": 8132,
      "det": 8133,
      "depr": 8134,
      "deple": 8135,
      "defer": 8136,
      "deregulation": 8137,
      "iland": 8138,
      "sees": 8139,
      "seated": 8140,
      "seats": 8141,
      "secession": 8142,
      "veto": 8143,
      "acs": 8144,
      "acare": 8145,
      "accr": 8146,
      "beach": 8147,
      "beled": 8148,
      "bears": 8149,
      "beleague": 8150,
      "beacon": 8151,
      "chris": 8152,
      "conced": 8153,
      "contrad": 8154,
      "conferences": 8155,
      "tries": 8156,
      "trick": 8157,
      "olly": 8158,
      "unch": 8159,
      "unam": 8160,
      "unid": 8161,
      "unile": 8162,
      "unnecessary": 8163,
      "unify": 8164,
      "unchanged": 8165,
      "unhealthy": 8166,
      "unstable": 8167,
      "unrelent": 8168,
      "unrealistic": 8169,
      "unconditional": 8170,
      "unchecked": 8171,
      "image": 8172,
      "impul": 8173,
      "imminent": 8174,
      "loser": 8175,
      "aden": 8176,
      "advent": 8177,
      "uting": 8178,
      "nostal": 8179,
      "mogh": 8180,
      "moham": 8181,
      "modified": 8182,
      "protes": 8183,
      "prosecut": 8184,
      "amend": 8185,
      "ction": 8186,
      "cea": 8187,
      "igenous": 8188,
      "abusive": 8189,
      "termin": 8190,
      "pel": 8191,
      "pep": 8192,
      "pered": 8193,
      "illance": 8194,
      "comed": 8195,
      "compression": 8196,
      "comprising": 8197,
      "comprise": 8198,
      "irs": 8199,
      "iration": 8200,
      "irans": 8201,
      "irable": 8202,
      "nef": 8203,
      "neth": 8204,
      "nered": 8205,
      "nepal": 8206,
      "nels": 8207,
      "uled": 8208,
      "ullo": 8209,
      "ulative": 8210,
      "ulating": 8211,
      "apt": 8212,
      "apology": 8213,
      "afgh": 8214,
      "affl": 8215,
      "mah": 8216,
      "maoist": 8217,
      "exempt": 8218,
      "expressing": 8219,
      "exotic": 8220,
      "exxon": 8221,
      "estimate": 8222,
      "emin": 8223,
      "emig": 8224,
      "empowered": 8225,
      "lie": 8226,
      "het": 8227,
      "heating": 8228,
      "soes": 8229,
      "sophist": 8230,
      "opt": 8231,
      "overarch": 8232,
      "overcoming": 8233,
      "overlook": 8234,
      "overdue": 8235,
      "ifo": 8236,
      "shir": 8237,
      "shop": 8238,
      "shot": 8239,
      "shining": 8240,
      "porarily": 8241,
      "portray": 8242,
      "tells": 8243,
      "manic": 8244,
      "feet": 8245,
      "outset": 8246,
      "outflows": 8247,
      "outbreaks": 8248,
      "plun": 8249,
      "actual": 8250,
      "endure": 8251,
      "endured": 8252,
      "crack": 8253,
      "crashing": 8254,
      "permis": 8255,
      "prone": 8256,
      "indigenous": 8257,
      "parthen": 8258,
      "paraly": 8259,
      "clar": 8260,
      "cloud": 8261,
      "portugu": 8262,
      "ghost": 8263,
      "2019": 8264,
      "coherence": 8265,
      "methan": 8266,
      "meless": 8267,
      "meters": 8268,
      "meets": 8269,
      "megaw": 8270,
      "strand": 8271,
      "strive": 8272,
      "strained": 8273,
      "astonishing": 8274,
      "cream": 8275,
      "evo": 8276,
      "fores": 8277,
      "ballot": 8278,
      "newsp": 8279,
      "thank": 8280,
      "diss": 8281,
      "dismay": 8282,
      "disgu": 8283,
      "dismal": 8284,
      "disbur": 8285,
      "disclose": 8286,
      "disrespect": 8287,
      "disintegration": 8288,
      "distrust": 8289,
      "disappeared": 8290,
      "auth": 8291,
      "governor": 8292,
      "growers": 8293,
      "fined": 8294,
      "commons": 8295,
      "doors": 8296,
      "doctr": 8297,
      "ipping": 8298,
      "marking": 8299,
      "nationalistic": 8300,
      "govina": 8301,
      "interpre": 8302,
      "interaction": 8303,
      "interrup": 8304,
      "interference": 8305,
      "interdependent": 8306,
      "interdependence": 8307,
      "preempt": 8308,
      "precious": 8309,
      "curtain": 8310,
      "curtail": 8311,
      "develops": 8312,
      "invited": 8313,
      "invasive": 8314,
      "ached": 8315,
      "politan": 8316,
      "uces": 8317,
      "bog": 8318,
      "boss": 8319,
      "regret": 8320,
      "uda": 8321,
      "bris": 8322,
      "brand": 8323,
      "brains": 8324,
      "brai": 8325,
      "branch": 8326,
      "whos": 8327,
      "berg": 8328,
      "avia": 8329,
      "reelect": 8330,
      "obstruct": 8331,
      "thereafter": 8332,
      "ideally": 8333,
      "spans": 8334,
      "foremost": 8335,
      "syner": 8336,
      "sylv": 8337,
      "intu": 8338,
      "undertaking": 8339,
      "undergoing": 8340,
      "financi": 8341,
      "mining": 8342,
      "mineral": 8343,
      "gyenyi": 8344,
      "larry": 8345,
      "warren": 8346,
      "warns": 8347,
      "provoc": 8348,
      "provoked": 8349,
      "capability": 8350,
      "hispanic": 8351,
      "whenever": 8352,
      "longest": 8353,
      "draf": 8354,
      "drives": 8355,
      "anymore": 8356,
      "farhang": 8357,
      "continuation": 8358,
      "firming": 8359,
      "justify": 8360,
      "justified": 8361,
      "calm": 8362,
      "mugyenyi": 8363,
      "akaz": 8364,
      "wherever": 8365,
      "aternal": 8366,
      "faire": 8367,
      "surging": 8368,
      "transactions": 8369,
      "timely": 8370,
      "despair": 8371,
      "desirable": 8372,
      "debates": 8373,
      "versa": 8374,
      "solitary": 8375,
      "engaging": 8376,
      "tradeoffs": 8377,
      "bases": 8378,
      "bashar": 8379,
      "miser": 8380,
      "mistrust": 8381,
      "misunderstanding": 8382,
      "misguided": 8383,
      "instances": 8384,
      "jean": 8385,
      "tenth": 8386,
      "tenable": 8387,
      "median": 8388,
      "mediter": 8389,
      "supportive": 8390,
      "wellbeing": 8391,
      "examined": 8392,
      "subprime": 8393,
      "subordin": 8394,
      "submitted": 8395,
      "subdued": 8396,
      "landholders": 8397,
      "inclined": 8398,
      "diver": 8399,
      "request": 8400,
      "techniques": 8401,
      "talents": 8402,
      "talked": 8403,
      "voter": 8404,
      "vocal": 8405,
      "labeled": 8406,
      "cushion": 8407,
      "cascade": 8408,
      "herze": 8409,
      "interesting": 8410,
      "ictions": 8411,
      "tainment": 8412,
      "orderly": 8413,
      "carl": 8414,
      "cars": 8415,
      "carri": 8416,
      "carmen": 8417,
      "spear": 8418,
      "speaking": 8419,
      "capitalizing": 8420,
      "domain": 8421,
      "qualified": 8422,
      "trients": 8423,
      "tribun": 8424,
      "keys": 8425,
      "signing": 8426,
      "signals": 8427,
      "signaled": 8428,
      "democrat": 8429,
      "hart": 8430,
      "extends": 8431,
      "legally": 8432,
      "apping": 8433,
      "strategically": 8434,
      "choslo": 8435,
      "childbirth": 8436,
      "strongest": 8437,
      "vibr": 8438,
      "vienn": 8439,
      "employers": 8440,
      "benefiting": 8441,
      "artis": 8442,
      "offense": 8443,
      "offsetting": 8444,
      "downward": 8445,
      "payroll": 8446,
      "payoffs": 8447,
      "maker": 8448,
      "ibly": 8449,
      "monit": 8450,
      "monopol": 8451,
      "monarchy": 8452,
      "montreal": 8453,
      "humankind": 8454,
      "ranean": 8455,
      "revive": 8456,
      "revital": 8457,
      "reviving": 8458,
      "revived": 8459,
      "programme": 8460,
      "laboratory": 8461,
      "timing": 8462,
      "officer": 8463,
      "militar": 8464,
      "tarullo": 8465,
      "consumed": 8466,
      "successor": 8467,
      "succession": 8468,
      "kenneth": 8469,
      "deficient": 8470,
      "deficiency": 8471,
      "closest": 8472,
      "anothers": 8473,
      "bipartisan": 8474,
      "matched": 8475,
      "organize": 8476,
      "progressive": 8477,
      "innovate": 8478,
      "cker": 8479,
      "creditworth": 8480,
      "insights": 8481,
      "regulating": 8482,
      "barak": 8483,
      "bargain": 8484,
      "pointment": 8485,
      "freely": 8486,
      "freeze": 8487,
      "malaise": 8488,
      "biguous": 8489,
      "camp": 8490,
      "camden": 8491,
      "projections": 8492,
      "significance": 8493,
      "industrialize": 8494,
      "patent": 8495,
      "patience": 8496,
      "deny": 8497,
      "denmark": 8498,
      "denomin": 8499,
      "founded": 8500,
      "founding": 8501,
      "shareholder": 8502,
      "difficulty": 8503,
      "decisively": 8504,
      "charles": 8505,
      "headlines": 8506,
      "showcase": 8507,
      "multicultural": 8508,
      "competence": 8509,
      "impasse": 8510,
      "completing": 8511,
      "cooperative": 8512,
      "cooperating": 8513,
      "societys": 8514,
      "burst": 8515,
      "burning": 8516,
      "communitys": 8517,
      "depended": 8518,
      "prised": 8519,
      "lingu": 8520,
      "contract": 8521,
      "differently": 8522,
      "awing": 8523,
      "dealing": 8524,
      "opening": 8525,
      "linear": 8526,
      "reporting": 8527,
      "averaged": 8528,
      "starved": 8529,
      "combining": 8530,
      "predomin": 8531,
      "rationale": 8532,
      "achievement": 8533,
      "broaden": 8534,
      "plicity": 8535,
      "flowing": 8536,
      "republics": 8537,
      "fortunate": 8538,
      "chement": 8539,
      "coalitions": 8540,
      "defending": 8541,
      "preventable": 8542,
      "personally": 8543,
      "holiday": 8544,
      "capacities": 8545,
      "temporarily": 8546,
      "classes": 8547,
      "doubts": 8548,
      "deepen": 8549,
      "postwar": 8550,
      "experiments": 8551,
      "transformative": 8552,
      "testament": 8553,
      "60th": 8554,
      "sites": 8555,
      "entertainment": 8556,
      "grounds": 8557,
      "stopped": 8558,
      "stopping": 8559,
      "subscrib": 8560,
      "hindu": 8561,
      "stimulating": 8562,
      "swiss": 8563,
      "sovereigns": 8564,
      "bolster": 8565,
      "respects": 8566,
      "existential": 8567,
      "lifting": 8568,
      "prediction": 8569,
      "predictive": 8570,
      "hybrid": 8571,
      "analogy": 8572,
      "constrain": 8573,
      "cleaning": 8574,
      "passes": 8575,
      "properties": 8576,
      "gradual": 8577,
      "hijack": 8578,
      "algerian": 8579,
      "specialization": 8580,
      "favorite": 8581,
      "supplying": 8582,
      "dividing": 8583,
      "winners": 8584,
      "commissioners": 8585,
      "multilateralism": 8586,
      "subsidy": 8587,
      "journey": 8588,
      "stood": 8589,
      "ambitions": 8590,
      "counterparts": 8591,
      "bridges": 8592,
      "succeeding": 8593,
      "broker": 8594,
      "brooks": 8595,
      "disorderly": 8596,
      "wrongs": 8597,
      "divor": 8598,
      "division": 8599,
      "fixed": 8600,
      "fixated": 8601,
      "messages": 8602,
      "silence": 8603,
      "silicon": 8604,
      "assumptions": 8605,
      "wishful": 8606,
      "booms": 8607,
      "respondents": 8608,
      "occurring": 8609,
      "touched": 8610,
      "steam": 8611,
      "steep": 8612,
      "stealing": 8613,
      "depth": 8614,
      "conservatives": 8615,
      "conservatism": 8616,
      "welcomed": 8617,
      "fertile": 8618,
      "mobilized": 8619,
      "reinhart": 8620,
      "demonstrates": 8621,
      "sounds": 8622,
      "location": 8623,
      "locking": 8624,
      "locally": 8625,
      "coordinate": 8626,
      "struggled": 8627,
      "struggles": 8628,
      "explore": 8629,
      "explosive": 8630,
      "watched": 8631,
      "immunized": 8632,
      "bottlen": 8633,
      "engineers": 8634,
      "bordering": 8635,
      "navigating": 8636,
      "excessively": 8637,
      "firmly": 8638,
      "friendship": 8639,
      "judge": 8640,
      "judges": 8641,
      "proportions": 8642,
      "relevance": 8643,
      "lank": 8644,
      "riding": 8645,
      "prohibits": 8646,
      "prohibited": 8647,
      "complain": 8648,
      "restricted": 8649,
      "compensated": 8650,
      "thoughtful": 8651,
      "johnson": 8652,
      "magic": 8653,
      "magris": 8654,
      "magnets": 8655,
      "acquiring": 8656,
      "advocated": 8657,
      "advocacy": 8658,
      "françois": 8659,
      "emphasized": 8660,
      "emphasizing": 8661,
      "emphasizes": 8662,
      "battles": 8663,
      "sentence": 8664,
      "entrepreneurial": 8665,
      "prevents": 8666,
      "surveillance": 8667,
      "literature": 8668,
      "painfully": 8669,
      "rounds": 8670,
      "sunlight": 8671,
      "smoke": 8672,
      "smoking": 8673,
      "conclusion": 8674,
      "conclusions": 8675,
      "obamacare": 8676,
      "typical": 8677,
      "characteristics": 8678,
      "reveals": 8679,
      "assessing": 8680,
      "consistently": 8681,
      "superconductivity": 8682,
      "hospitality": 8683,
      "bulk": 8684,
      "casting": 8685,
      "intellectuals": 8686,
      "ukrainian": 8687,
      "christians": 8688,
      "christmas": 8689,
      "adapting": 8690,
      "celebrated": 8691,
      "spurred": 8692,
      "minimal": 8693,
      "guls": 8694,
      "departure": 8695,
      "petition": 8696,
      "brazilian": 8697,
      "facilitated": 8698,
      "fleeting": 8699,
      "nutrients": 8700,
      "remarkably": 8701,
      "devastated": 8702,
      "imagination": 8703,
      "1968": 8704,
      "ahus": 8705,
      "firewall": 8706,
      "hurdles": 8707,
      "milk": 8708,
      "stern": 8709,
      "peacefully": 8710,
      "liquor": 8711,
      "advancement": 8712,
      "physic": 8713,
      "deployment": 8714,
      "skeptical": 8715,
      "winds": 8716,
      "arrival": 8717,
      "afdbs": 8718,
      "optimistic": 8719,
      "motivation": 8720,
      "bureaucrats": 8721,
      "mixed": 8722,
      "isolated": 8723,
      "nearby": 8724,
      "exceeding": 8725,
      "crippling": 8726,
      "narrowly": 8727,
      "surveyed": 8728,
      "austral": 8729,
      "forums": 8730,
      "opposing": 8731,
      "planted": 8732,
      "brutality": 8733,
      "feminists": 8734,
      "woods": 8735,
      "aipacs": 8736,
      "sales": 8737,
      "scarcity": 8738,
      "rers": 8739,
      "tolerate": 8740,
      "tolerated": 8741,
      "condemning": 8742,
      "complications": 8743,
      "exerc": 8744,
      "quantum": 8745,
      "audac": 8746,
      "ologically": 8747,
      "delaying": 8748,
      "numerical": 8749,
      "paradoxically": 8750,
      "pensions": 8751,
      "somalias": 8752,
      "spectacle": 8753,
      "angel": 8754,
      "intensify": 8755,
      "calculus": 8756,
      "netanyahus": 8757,
      "anticipate": 8758,
      "anticipated": 8759,
      "karzais": 8760,
      "altruistic": 8761,
      "orientation": 8762,
      "itius": 8763,
      "outright": 8764,
      "semi": 8765,
      "accommodate": 8766,
      "undered": 8767,
      "geoengineering": 8768,
      "automatic": 8769,
      "articles": 8770,
      "patriotic": 8771,
      "weaknesses": 8772,
      "graduate": 8773,
      "bombings": 8774,
      "crown": 8775,
      "ppm": 8776,
      "attributes": 8777,
      "unilateralism": 8778,
      "admittedly": 8779,
      "shrine": 8780,
      "quota": 8781,
      "epidemics": 8782,
      "insistence": 8783,
      "aiibs": 8784,
      "championed": 8785,
      "jailing": 8786,
      "phases": 8787,
      "allevi": 8788,
      "convenient": 8789,
      "contentious": 8790,
      "railways": 8791,
      "highlighted": 8792,
      "1950s": 8793,
      "fulfilled": 8794,
      "fulfilling": 8795,
      "relentless": 8796,
      "desperate": 8797,
      "courageous": 8798,
      "customs": 8799,
      "fundamentally": 8800,
      "flexible": 8801,
      "davos": 8802,
      "nurture": 8803,
      "rudds": 8804,
      "scrut": 8805,
      "tactical": 8806,
      "anxious": 8807,
      "romania": 8808,
      "proceeds": 8809,
      "abundance": 8810,
      "antarctica": 8811,
      "marriages": 8812,
      "preferred": 8813,
      "predecessor": 8814,
      "bosnian": 8815,
      "flaws": 8816,
      "continuity": 8817,
      "attempting": 8818,
      "predicting": 8819,
      "extremism": 8820,
      "dictatorship": 8821,
      "luxuries": 8822,
      "sexuality": 8823,
      "trafficking": 8824,
      "beside": 8825,
      "husbands": 8826,
      "textiles": 8827,
      "restraints": 8828,
      "resemble": 8829,
      "resembles": 8830,
      "churches": 8831,
      "converge": 8832,
      "advisers": 8833,
      "advertise": 8834,
      "comparable": 8835,
      "shutdown": 8836,
      "simultaneous": 8837,
      "hydrocarbons": 8838,
      "brothers": 8839,
      "scholarships": 8840,
      "dubious": 8841,
      "dubai": 8842,
      "reconcile": 8843,
      "assertive": 8844,
      "suspicion": 8845,
      "suspicious": 8846,
      "cameron": 8847,
      "czechoslo": 8848,
      "dimens": 8849,
      "dimension": 8850,
      "fitting": 8851,
      "lagarde": 8852,
      "strictly": 8853,
      "vehicle": 8854,
      "weighs": 8855,
      "emitting": 8856,
      "embarrass": 8857,
      "footsteps": 8858,
      "inequities": 8859,
      "symbolic": 8860,
      "stagnated": 8861,
      "galbrai": 8862,
      "pesticide": 8863,
      "ramad": 8864,
      "spotlight": 8865,
      "vitamin": 8866,
      "reckless": 8867,
      "stifle": 8868,
      "stifling": 8869,
      "countless": 8870,
      "disasters": 8871,
      "presumably": 8872,
      "contemporary": 8873,
      "contemplate": 8874,
      "fruits": 8875,
      "positiv": 8876,
      "accumulated": 8877,
      "catalyst": 8878,
      "neglected": 8879,
      "restrictive": 8880,
      "ceremonies": 8881,
      "excellent": 8882,
      "lobbying": 8883,
      "mathematical": 8884,
      "chiracs": 8885,
      "jinping": 8886,
      "sanders": 8887,
      "wolf": 8888,
      "xiaobo": 8889,
      "inheritance": 8890,
      "annexation": 8891,
      "delegates": 8892,
      "unleash": 8893,
      "imprisoned": 8894,
      "imprisonment": 8895,
      "adults": 8896,
      "neoclassical": 8897,
      "residents": 8898,
      "parallels": 8899,
      "grids": 8900,
      "grassroots": 8901,
      "intentions": 8902,
      "episod": 8903,
      "episode": 8904,
      "missile": 8905,
      "attainable": 8906,
      "cultivated": 8907,
      "cultivating": 8908,
      "distinguish": 8909,
      "switzer": 8910,
      "symptom": 8911,
      "symptoms": 8912,
      "doormats": 8913,
      "philosoph": 8914,
      "philosopher": 8915,
      "instrumentalities": 8916,
      "consultations": 8917,
      "hanging": 8918,
      "jimmy": 8919,
      "slip": 8920,
      "incarn": 8921,
      "revelation": 8922,
      "totally": 8923,
      "accomplish": 8924,
      "chambers": 8925,
      "implying": 8926,
      "prolonged": 8927,
      "usalem": 8928,
      "portfolio": 8929,
      "fostering": 8930,
      "disposal": 8931,
      "martin": 8932,
      "friedman": 8933,
      "eligible": 8934,
      "totalitarianism": 8935,
      "deteriorated": 8936,
      "safeguards": 8937,
      "narcotics": 8938,
      "millennials": 8939,
      "cherkesov": 8940,
      "bastille": 8941,
      "dwellers": 8942,
      "henry": 8943,
      "jerusalem": 8944,
      "pillars": 8945,
      "slave": 8946,
      "replicated": 8947,
      "enthusi": 8948,
      "arrears": 8949,
      "leaky": 8950,
      "conversation": 8951,
      "novartis": 8952,
      "procedures": 8953,
      "abidjan": 8954,
      "mauritius": 8955,
      "excuse": 8956,
      "embodied": 8957,
      "crumbling": 8958,
      "indifferent": 8959,
      "district": 8960,
      "blueprint": 8961,
      "tyranny": 8962,
      "captured": 8963,
      "assault": 8964,
      "reluctant": 8965,
      "colombia": 8966,
      "triumph": 8967,
      "elevated": 8968,
      "secretariat": 8969,
      "destabilizing": 8970,
      "autocrats": 8971,
      "rumsfeld": 8972,
      "plummeted": 8973,
      "eighth": 8974,
      "ebola": 8975,
      "gauck": 8976,
      "joseph": 8977,
      "koran": 8978,
      "licens": 8979,
      "lancet": 8980,
      "paved": 8981,
      "pundits": 8982,
      "skewed": 8983,
      "utopia": 8984,
      "retaliation": 8985,
      "devising": 8986,
      "proxies": 8987,
      "abraham": 8988,
      "exemplif": 8989,
      "emirates": 8990,
      "embedded": 8991,
      "quotas": 8992,
      "yellen": 8993,
      "grievances": 8994,
      "prejudice": 8995,
      "observation": 8996,
      "lincoln": 8997,
[...]
